{
  "version": "1.0",
  "truncation": null,
  "padding": null,
  "added_tokens": [
    {
      "id": 0,
      "content": "[PAD]",
      "single_word": false,
      "lstrip": false,
      "rstrip": false,
      "normalized": false,
      "special": true
    },
    {
      "id": 1,
      "content": "[UNK]",
      "single_word": false,
      "lstrip": false,
      "rstrip": false,
      "normalized": false,
      "special": true
    },
    {
      "id": 2,
      "content": "[SOS]",
      "single_word": false,
      "lstrip": false,
      "rstrip": false,
      "normalized": false,
      "special": true
    },
    {
      "id": 3,
      "content": "[EOS]",
      "single_word": false,
      "lstrip": false,
      "rstrip": false,
      "normalized": false,
      "special": true
    },
    {
      "id": 4,
      "content": "[S_0]",
      "single_word": true,
      "lstrip": false,
      "rstrip": false,
      "normalized": false,
      "special": true
    },
    {
      "id": 5,
      "content": "[S_1]",
      "single_word": true,
      "lstrip": false,
      "rstrip": false,
      "normalized": false,
      "special": true
    },
    {
      "id": 6,
      "content": "[S_2]",
      "single_word": true,
      "lstrip": false,
      "rstrip": false,
      "normalized": false,
      "special": true
    },
    {
      "id": 7,
      "content": "[S_3]",
      "single_word": true,
      "lstrip": false,
      "rstrip": false,
      "normalized": false,
      "special": true
    },
    {
      "id": 8,
      "content": "[S_4]",
      "single_word": true,
      "lstrip": false,
      "rstrip": false,
      "normalized": false,
      "special": true
    },
    {
      "id": 9,
      "content": "[S_5]",
      "single_word": true,
      "lstrip": false,
      "rstrip": false,
      "normalized": false,
      "special": true
    },
    {
      "id": 10,
      "content": "[S_6]",
      "single_word": true,
      "lstrip": false,
      "rstrip": false,
      "normalized": false,
      "special": true
    },
    {
      "id": 11,
      "content": "[S_7]",
      "single_word": true,
      "lstrip": false,
      "rstrip": false,
      "normalized": false,
      "special": true
    },
    {
      "id": 12,
      "content": "[S_8]",
      "single_word": true,
      "lstrip": false,
      "rstrip": false,
      "normalized": false,
      "special": true
    },
    {
      "id": 13,
      "content": "[S_9]",
      "single_word": true,
      "lstrip": false,
      "rstrip": false,
      "normalized": false,
      "special": true
    },
    {
      "id": 14,
      "content": "[S_10]",
      "single_word": true,
      "lstrip": false,
      "rstrip": false,
      "normalized": false,
      "special": true
    },
    {
      "id": 15,
      "content": "[S_11]",
      "single_word": true,
      "lstrip": false,
      "rstrip": false,
      "normalized": false,
      "special": true
    },
    {
      "id": 16,
      "content": "[S_12]",
      "single_word": true,
      "lstrip": false,
      "rstrip": false,
      "normalized": false,
      "special": true
    },
    {
      "id": 17,
      "content": "[S_13]",
      "single_word": true,
      "lstrip": false,
      "rstrip": false,
      "normalized": false,
      "special": true
    },
    {
      "id": 18,
      "content": "[S_14]",
      "single_word": true,
      "lstrip": false,
      "rstrip": false,
      "normalized": false,
      "special": true
    },
    {
      "id": 19,
      "content": "[S_15]",
      "single_word": true,
      "lstrip": false,
      "rstrip": false,
      "normalized": false,
      "special": true
    },
    {
      "id": 20,
      "content": "[S_16]",
      "single_word": true,
      "lstrip": false,
      "rstrip": false,
      "normalized": false,
      "special": true
    },
    {
      "id": 21,
      "content": "[S_17]",
      "single_word": true,
      "lstrip": false,
      "rstrip": false,
      "normalized": false,
      "special": true
    },
    {
      "id": 22,
      "content": "[S_18]",
      "single_word": true,
      "lstrip": false,
      "rstrip": false,
      "normalized": false,
      "special": true
    },
    {
      "id": 23,
      "content": "[S_19]",
      "single_word": true,
      "lstrip": false,
      "rstrip": false,
      "normalized": false,
      "special": true
    },
    {
      "id": 24,
      "content": "[S_20]",
      "single_word": true,
      "lstrip": false,
      "rstrip": false,
      "normalized": false,
      "special": true
    },
    {
      "id": 25,
      "content": "[S_21]",
      "single_word": true,
      "lstrip": false,
      "rstrip": false,
      "normalized": false,
      "special": true
    },
    {
      "id": 26,
      "content": "[S_22]",
      "single_word": true,
      "lstrip": false,
      "rstrip": false,
      "normalized": false,
      "special": true
    },
    {
      "id": 27,
      "content": "[S_23]",
      "single_word": true,
      "lstrip": false,
      "rstrip": false,
      "normalized": false,
      "special": true
    },
    {
      "id": 28,
      "content": "[S_24]",
      "single_word": true,
      "lstrip": false,
      "rstrip": false,
      "normalized": false,
      "special": true
    },
    {
      "id": 29,
      "content": "[S_25]",
      "single_word": true,
      "lstrip": false,
      "rstrip": false,
      "normalized": false,
      "special": true
    },
    {
      "id": 30,
      "content": "[S_26]",
      "single_word": true,
      "lstrip": false,
      "rstrip": false,
      "normalized": false,
      "special": true
    },
    {
      "id": 31,
      "content": "[S_27]",
      "single_word": true,
      "lstrip": false,
      "rstrip": false,
      "normalized": false,
      "special": true
    },
    {
      "id": 32,
      "content": "[S_28]",
      "single_word": true,
      "lstrip": false,
      "rstrip": false,
      "normalized": false,
      "special": true
    },
    {
      "id": 33,
      "content": "[S_29]",
      "single_word": true,
      "lstrip": false,
      "rstrip": false,
      "normalized": false,
      "special": true
    },
    {
      "id": 34,
      "content": "[S_30]",
      "single_word": true,
      "lstrip": false,
      "rstrip": false,
      "normalized": false,
      "special": true
    },
    {
      "id": 35,
      "content": "[S_31]",
      "single_word": true,
      "lstrip": false,
      "rstrip": false,
      "normalized": false,
      "special": true
    },
    {
      "id": 36,
      "content": "[S_32]",
      "single_word": true,
      "lstrip": false,
      "rstrip": false,
      "normalized": false,
      "special": true
    },
    {
      "id": 37,
      "content": "[S_33]",
      "single_word": true,
      "lstrip": false,
      "rstrip": false,
      "normalized": false,
      "special": true
    },
    {
      "id": 38,
      "content": "[S_34]",
      "single_word": true,
      "lstrip": false,
      "rstrip": false,
      "normalized": false,
      "special": true
    },
    {
      "id": 39,
      "content": "[S_35]",
      "single_word": true,
      "lstrip": false,
      "rstrip": false,
      "normalized": false,
      "special": true
    },
    {
      "id": 40,
      "content": "[S_36]",
      "single_word": true,
      "lstrip": false,
      "rstrip": false,
      "normalized": false,
      "special": true
    },
    {
      "id": 41,
      "content": "[S_37]",
      "single_word": true,
      "lstrip": false,
      "rstrip": false,
      "normalized": false,
      "special": true
    },
    {
      "id": 42,
      "content": "[S_38]",
      "single_word": true,
      "lstrip": false,
      "rstrip": false,
      "normalized": false,
      "special": true
    },
    {
      "id": 43,
      "content": "[S_39]",
      "single_word": true,
      "lstrip": false,
      "rstrip": false,
      "normalized": false,
      "special": true
    },
    {
      "id": 44,
      "content": "[S_40]",
      "single_word": true,
      "lstrip": false,
      "rstrip": false,
      "normalized": false,
      "special": true
    },
    {
      "id": 45,
      "content": "[S_41]",
      "single_word": true,
      "lstrip": false,
      "rstrip": false,
      "normalized": false,
      "special": true
    },
    {
      "id": 46,
      "content": "[S_42]",
      "single_word": true,
      "lstrip": false,
      "rstrip": false,
      "normalized": false,
      "special": true
    },
    {
      "id": 47,
      "content": "[S_43]",
      "single_word": true,
      "lstrip": false,
      "rstrip": false,
      "normalized": false,
      "special": true
    },
    {
      "id": 48,
      "content": "[S_44]",
      "single_word": true,
      "lstrip": false,
      "rstrip": false,
      "normalized": false,
      "special": true
    },
    {
      "id": 49,
      "content": "[S_45]",
      "single_word": true,
      "lstrip": false,
      "rstrip": false,
      "normalized": false,
      "special": true
    },
    {
      "id": 50,
      "content": "[S_46]",
      "single_word": true,
      "lstrip": false,
      "rstrip": false,
      "normalized": false,
      "special": true
    },
    {
      "id": 51,
      "content": "[S_47]",
      "single_word": true,
      "lstrip": false,
      "rstrip": false,
      "normalized": false,
      "special": true
    },
    {
      "id": 52,
      "content": "[S_48]",
      "single_word": true,
      "lstrip": false,
      "rstrip": false,
      "normalized": false,
      "special": true
    },
    {
      "id": 53,
      "content": "[S_49]",
      "single_word": true,
      "lstrip": false,
      "rstrip": false,
      "normalized": false,
      "special": true
    },
    {
      "id": 54,
      "content": "[S_50]",
      "single_word": true,
      "lstrip": false,
      "rstrip": false,
      "normalized": false,
      "special": true
    },
    {
      "id": 55,
      "content": "[S_51]",
      "single_word": true,
      "lstrip": false,
      "rstrip": false,
      "normalized": false,
      "special": true
    },
    {
      "id": 56,
      "content": "[S_52]",
      "single_word": true,
      "lstrip": false,
      "rstrip": false,
      "normalized": false,
      "special": true
    },
    {
      "id": 57,
      "content": "[S_53]",
      "single_word": true,
      "lstrip": false,
      "rstrip": false,
      "normalized": false,
      "special": true
    },
    {
      "id": 58,
      "content": "[S_54]",
      "single_word": true,
      "lstrip": false,
      "rstrip": false,
      "normalized": false,
      "special": true
    },
    {
      "id": 59,
      "content": "[S_55]",
      "single_word": true,
      "lstrip": false,
      "rstrip": false,
      "normalized": false,
      "special": true
    },
    {
      "id": 60,
      "content": "[S_56]",
      "single_word": true,
      "lstrip": false,
      "rstrip": false,
      "normalized": false,
      "special": true
    },
    {
      "id": 61,
      "content": "[S_57]",
      "single_word": true,
      "lstrip": false,
      "rstrip": false,
      "normalized": false,
      "special": true
    },
    {
      "id": 62,
      "content": "[S_58]",
      "single_word": true,
      "lstrip": false,
      "rstrip": false,
      "normalized": false,
      "special": true
    },
    {
      "id": 63,
      "content": "[S_59]",
      "single_word": true,
      "lstrip": false,
      "rstrip": false,
      "normalized": false,
      "special": true
    },
    {
      "id": 64,
      "content": "[S_60]",
      "single_word": true,
      "lstrip": false,
      "rstrip": false,
      "normalized": false,
      "special": true
    },
    {
      "id": 65,
      "content": "[S_61]",
      "single_word": true,
      "lstrip": false,
      "rstrip": false,
      "normalized": false,
      "special": true
    },
    {
      "id": 66,
      "content": "[S_62]",
      "single_word": true,
      "lstrip": false,
      "rstrip": false,
      "normalized": false,
      "special": true
    },
    {
      "id": 67,
      "content": "[S_63]",
      "single_word": true,
      "lstrip": false,
      "rstrip": false,
      "normalized": false,
      "special": true
    },
    {
      "id": 68,
      "content": "[S_64]",
      "single_word": true,
      "lstrip": false,
      "rstrip": false,
      "normalized": false,
      "special": true
    },
    {
      "id": 69,
      "content": "[S_65]",
      "single_word": true,
      "lstrip": false,
      "rstrip": false,
      "normalized": false,
      "special": true
    },
    {
      "id": 70,
      "content": "[S_66]",
      "single_word": true,
      "lstrip": false,
      "rstrip": false,
      "normalized": false,
      "special": true
    },
    {
      "id": 71,
      "content": "[S_67]",
      "single_word": true,
      "lstrip": false,
      "rstrip": false,
      "normalized": false,
      "special": true
    },
    {
      "id": 72,
      "content": "[S_68]",
      "single_word": true,
      "lstrip": false,
      "rstrip": false,
      "normalized": false,
      "special": true
    },
    {
      "id": 73,
      "content": "[S_69]",
      "single_word": true,
      "lstrip": false,
      "rstrip": false,
      "normalized": false,
      "special": true
    },
    {
      "id": 74,
      "content": "[S_70]",
      "single_word": true,
      "lstrip": false,
      "rstrip": false,
      "normalized": false,
      "special": true
    },
    {
      "id": 75,
      "content": "[S_71]",
      "single_word": true,
      "lstrip": false,
      "rstrip": false,
      "normalized": false,
      "special": true
    },
    {
      "id": 76,
      "content": "[S_72]",
      "single_word": true,
      "lstrip": false,
      "rstrip": false,
      "normalized": false,
      "special": true
    },
    {
      "id": 77,
      "content": "[S_73]",
      "single_word": true,
      "lstrip": false,
      "rstrip": false,
      "normalized": false,
      "special": true
    },
    {
      "id": 78,
      "content": "[S_74]",
      "single_word": true,
      "lstrip": false,
      "rstrip": false,
      "normalized": false,
      "special": true
    },
    {
      "id": 79,
      "content": "[S_75]",
      "single_word": true,
      "lstrip": false,
      "rstrip": false,
      "normalized": false,
      "special": true
    },
    {
      "id": 80,
      "content": "[S_76]",
      "single_word": true,
      "lstrip": false,
      "rstrip": false,
      "normalized": false,
      "special": true
    },
    {
      "id": 81,
      "content": "[S_77]",
      "single_word": true,
      "lstrip": false,
      "rstrip": false,
      "normalized": false,
      "special": true
    },
    {
      "id": 82,
      "content": "[S_78]",
      "single_word": true,
      "lstrip": false,
      "rstrip": false,
      "normalized": false,
      "special": true
    },
    {
      "id": 83,
      "content": "[S_79]",
      "single_word": true,
      "lstrip": false,
      "rstrip": false,
      "normalized": false,
      "special": true
    },
    {
      "id": 84,
      "content": "[S_80]",
      "single_word": true,
      "lstrip": false,
      "rstrip": false,
      "normalized": false,
      "special": true
    },
    {
      "id": 85,
      "content": "[S_81]",
      "single_word": true,
      "lstrip": false,
      "rstrip": false,
      "normalized": false,
      "special": true
    },
    {
      "id": 86,
      "content": "[S_82]",
      "single_word": true,
      "lstrip": false,
      "rstrip": false,
      "normalized": false,
      "special": true
    },
    {
      "id": 87,
      "content": "[S_83]",
      "single_word": true,
      "lstrip": false,
      "rstrip": false,
      "normalized": false,
      "special": true
    },
    {
      "id": 88,
      "content": "[S_84]",
      "single_word": true,
      "lstrip": false,
      "rstrip": false,
      "normalized": false,
      "special": true
    },
    {
      "id": 89,
      "content": "[S_85]",
      "single_word": true,
      "lstrip": false,
      "rstrip": false,
      "normalized": false,
      "special": true
    },
    {
      "id": 90,
      "content": "[S_86]",
      "single_word": true,
      "lstrip": false,
      "rstrip": false,
      "normalized": false,
      "special": true
    },
    {
      "id": 91,
      "content": "[S_87]",
      "single_word": true,
      "lstrip": false,
      "rstrip": false,
      "normalized": false,
      "special": true
    },
    {
      "id": 92,
      "content": "[S_88]",
      "single_word": true,
      "lstrip": false,
      "rstrip": false,
      "normalized": false,
      "special": true
    },
    {
      "id": 93,
      "content": "[S_89]",
      "single_word": true,
      "lstrip": false,
      "rstrip": false,
      "normalized": false,
      "special": true
    },
    {
      "id": 94,
      "content": "[S_90]",
      "single_word": true,
      "lstrip": false,
      "rstrip": false,
      "normalized": false,
      "special": true
    },
    {
      "id": 95,
      "content": "[S_91]",
      "single_word": true,
      "lstrip": false,
      "rstrip": false,
      "normalized": false,
      "special": true
    },
    {
      "id": 96,
      "content": "[S_92]",
      "single_word": true,
      "lstrip": false,
      "rstrip": false,
      "normalized": false,
      "special": true
    },
    {
      "id": 97,
      "content": "[S_93]",
      "single_word": true,
      "lstrip": false,
      "rstrip": false,
      "normalized": false,
      "special": true
    },
    {
      "id": 98,
      "content": "[S_94]",
      "single_word": true,
      "lstrip": false,
      "rstrip": false,
      "normalized": false,
      "special": true
    },
    {
      "id": 99,
      "content": "[S_95]",
      "single_word": true,
      "lstrip": false,
      "rstrip": false,
      "normalized": false,
      "special": true
    },
    {
      "id": 100,
      "content": "[S_96]",
      "single_word": true,
      "lstrip": false,
      "rstrip": false,
      "normalized": false,
      "special": true
    },
    {
      "id": 101,
      "content": "[S_97]",
      "single_word": true,
      "lstrip": false,
      "rstrip": false,
      "normalized": false,
      "special": true
    },
    {
      "id": 102,
      "content": "[S_98]",
      "single_word": true,
      "lstrip": false,
      "rstrip": false,
      "normalized": false,
      "special": true
    },
    {
      "id": 103,
      "content": "[S_99]",
      "single_word": true,
      "lstrip": false,
      "rstrip": false,
      "normalized": false,
      "special": true
    },
    {
      "id": 104,
      "content": "[S_100]",
      "single_word": true,
      "lstrip": false,
      "rstrip": false,
      "normalized": false,
      "special": true
    },
    {
      "id": 105,
      "content": "[S_101]",
      "single_word": true,
      "lstrip": false,
      "rstrip": false,
      "normalized": false,
      "special": true
    },
    {
      "id": 106,
      "content": "[S_102]",
      "single_word": true,
      "lstrip": false,
      "rstrip": false,
      "normalized": false,
      "special": true
    },
    {
      "id": 107,
      "content": "[S_103]",
      "single_word": true,
      "lstrip": false,
      "rstrip": false,
      "normalized": false,
      "special": true
    },
    {
      "id": 108,
      "content": "[S_104]",
      "single_word": true,
      "lstrip": false,
      "rstrip": false,
      "normalized": false,
      "special": true
    },
    {
      "id": 109,
      "content": "[S_105]",
      "single_word": true,
      "lstrip": false,
      "rstrip": false,
      "normalized": false,
      "special": true
    },
    {
      "id": 110,
      "content": "[S_106]",
      "single_word": true,
      "lstrip": false,
      "rstrip": false,
      "normalized": false,
      "special": true
    },
    {
      "id": 111,
      "content": "[S_107]",
      "single_word": true,
      "lstrip": false,
      "rstrip": false,
      "normalized": false,
      "special": true
    },
    {
      "id": 112,
      "content": "[S_108]",
      "single_word": true,
      "lstrip": false,
      "rstrip": false,
      "normalized": false,
      "special": true
    },
    {
      "id": 113,
      "content": "[S_109]",
      "single_word": true,
      "lstrip": false,
      "rstrip": false,
      "normalized": false,
      "special": true
    },
    {
      "id": 114,
      "content": "[S_110]",
      "single_word": true,
      "lstrip": false,
      "rstrip": false,
      "normalized": false,
      "special": true
    },
    {
      "id": 115,
      "content": "[S_111]",
      "single_word": true,
      "lstrip": false,
      "rstrip": false,
      "normalized": false,
      "special": true
    },
    {
      "id": 116,
      "content": "[S_112]",
      "single_word": true,
      "lstrip": false,
      "rstrip": false,
      "normalized": false,
      "special": true
    },
    {
      "id": 117,
      "content": "[S_113]",
      "single_word": true,
      "lstrip": false,
      "rstrip": false,
      "normalized": false,
      "special": true
    },
    {
      "id": 118,
      "content": "[S_114]",
      "single_word": true,
      "lstrip": false,
      "rstrip": false,
      "normalized": false,
      "special": true
    },
    {
      "id": 119,
      "content": "[S_115]",
      "single_word": true,
      "lstrip": false,
      "rstrip": false,
      "normalized": false,
      "special": true
    },
    {
      "id": 120,
      "content": "[S_116]",
      "single_word": true,
      "lstrip": false,
      "rstrip": false,
      "normalized": false,
      "special": true
    },
    {
      "id": 121,
      "content": "[S_117]",
      "single_word": true,
      "lstrip": false,
      "rstrip": false,
      "normalized": false,
      "special": true
    },
    {
      "id": 122,
      "content": "[S_118]",
      "single_word": true,
      "lstrip": false,
      "rstrip": false,
      "normalized": false,
      "special": true
    },
    {
      "id": 123,
      "content": "[S_119]",
      "single_word": true,
      "lstrip": false,
      "rstrip": false,
      "normalized": false,
      "special": true
    },
    {
      "id": 124,
      "content": "[S_120]",
      "single_word": true,
      "lstrip": false,
      "rstrip": false,
      "normalized": false,
      "special": true
    },
    {
      "id": 125,
      "content": "[S_121]",
      "single_word": true,
      "lstrip": false,
      "rstrip": false,
      "normalized": false,
      "special": true
    },
    {
      "id": 126,
      "content": "[S_122]",
      "single_word": true,
      "lstrip": false,
      "rstrip": false,
      "normalized": false,
      "special": true
    },
    {
      "id": 127,
      "content": "[S_123]",
      "single_word": true,
      "lstrip": false,
      "rstrip": false,
      "normalized": false,
      "special": true
    },
    {
      "id": 128,
      "content": "[S_124]",
      "single_word": true,
      "lstrip": false,
      "rstrip": false,
      "normalized": false,
      "special": true
    },
    {
      "id": 129,
      "content": "[S_125]",
      "single_word": true,
      "lstrip": false,
      "rstrip": false,
      "normalized": false,
      "special": true
    },
    {
      "id": 130,
      "content": "[S_126]",
      "single_word": true,
      "lstrip": false,
      "rstrip": false,
      "normalized": false,
      "special": true
    },
    {
      "id": 131,
      "content": "[S_127]",
      "single_word": true,
      "lstrip": false,
      "rstrip": false,
      "normalized": false,
      "special": true
    },
    {
      "id": 132,
      "content": "[S_128]",
      "single_word": true,
      "lstrip": false,
      "rstrip": false,
      "normalized": false,
      "special": true
    },
    {
      "id": 133,
      "content": "[S_129]",
      "single_word": true,
      "lstrip": false,
      "rstrip": false,
      "normalized": false,
      "special": true
    },
    {
      "id": 134,
      "content": "[S_130]",
      "single_word": true,
      "lstrip": false,
      "rstrip": false,
      "normalized": false,
      "special": true
    },
    {
      "id": 135,
      "content": "[S_131]",
      "single_word": true,
      "lstrip": false,
      "rstrip": false,
      "normalized": false,
      "special": true
    },
    {
      "id": 136,
      "content": "[S_132]",
      "single_word": true,
      "lstrip": false,
      "rstrip": false,
      "normalized": false,
      "special": true
    },
    {
      "id": 137,
      "content": "[S_133]",
      "single_word": true,
      "lstrip": false,
      "rstrip": false,
      "normalized": false,
      "special": true
    },
    {
      "id": 138,
      "content": "[S_134]",
      "single_word": true,
      "lstrip": false,
      "rstrip": false,
      "normalized": false,
      "special": true
    },
    {
      "id": 139,
      "content": "[S_135]",
      "single_word": true,
      "lstrip": false,
      "rstrip": false,
      "normalized": false,
      "special": true
    },
    {
      "id": 140,
      "content": "[S_136]",
      "single_word": true,
      "lstrip": false,
      "rstrip": false,
      "normalized": false,
      "special": true
    },
    {
      "id": 141,
      "content": "[S_137]",
      "single_word": true,
      "lstrip": false,
      "rstrip": false,
      "normalized": false,
      "special": true
    },
    {
      "id": 142,
      "content": "[S_138]",
      "single_word": true,
      "lstrip": false,
      "rstrip": false,
      "normalized": false,
      "special": true
    },
    {
      "id": 143,
      "content": "[S_139]",
      "single_word": true,
      "lstrip": false,
      "rstrip": false,
      "normalized": false,
      "special": true
    },
    {
      "id": 144,
      "content": "[S_140]",
      "single_word": true,
      "lstrip": false,
      "rstrip": false,
      "normalized": false,
      "special": true
    },
    {
      "id": 145,
      "content": "[S_141]",
      "single_word": true,
      "lstrip": false,
      "rstrip": false,
      "normalized": false,
      "special": true
    },
    {
      "id": 146,
      "content": "[S_142]",
      "single_word": true,
      "lstrip": false,
      "rstrip": false,
      "normalized": false,
      "special": true
    },
    {
      "id": 147,
      "content": "[S_143]",
      "single_word": true,
      "lstrip": false,
      "rstrip": false,
      "normalized": false,
      "special": true
    },
    {
      "id": 148,
      "content": "[S_144]",
      "single_word": true,
      "lstrip": false,
      "rstrip": false,
      "normalized": false,
      "special": true
    },
    {
      "id": 149,
      "content": "[S_145]",
      "single_word": true,
      "lstrip": false,
      "rstrip": false,
      "normalized": false,
      "special": true
    },
    {
      "id": 150,
      "content": "[S_146]",
      "single_word": true,
      "lstrip": false,
      "rstrip": false,
      "normalized": false,
      "special": true
    },
    {
      "id": 151,
      "content": "[S_147]",
      "single_word": true,
      "lstrip": false,
      "rstrip": false,
      "normalized": false,
      "special": true
    },
    {
      "id": 152,
      "content": "[S_148]",
      "single_word": true,
      "lstrip": false,
      "rstrip": false,
      "normalized": false,
      "special": true
    },
    {
      "id": 153,
      "content": "[S_149]",
      "single_word": true,
      "lstrip": false,
      "rstrip": false,
      "normalized": false,
      "special": true
    },
    {
      "id": 154,
      "content": "[S_150]",
      "single_word": true,
      "lstrip": false,
      "rstrip": false,
      "normalized": false,
      "special": true
    },
    {
      "id": 155,
      "content": "[S_151]",
      "single_word": true,
      "lstrip": false,
      "rstrip": false,
      "normalized": false,
      "special": true
    },
    {
      "id": 156,
      "content": "[S_152]",
      "single_word": true,
      "lstrip": false,
      "rstrip": false,
      "normalized": false,
      "special": true
    },
    {
      "id": 157,
      "content": "[S_153]",
      "single_word": true,
      "lstrip": false,
      "rstrip": false,
      "normalized": false,
      "special": true
    },
    {
      "id": 158,
      "content": "[S_154]",
      "single_word": true,
      "lstrip": false,
      "rstrip": false,
      "normalized": false,
      "special": true
    },
    {
      "id": 159,
      "content": "[S_155]",
      "single_word": true,
      "lstrip": false,
      "rstrip": false,
      "normalized": false,
      "special": true
    },
    {
      "id": 160,
      "content": "[S_156]",
      "single_word": true,
      "lstrip": false,
      "rstrip": false,
      "normalized": false,
      "special": true
    },
    {
      "id": 161,
      "content": "[S_157]",
      "single_word": true,
      "lstrip": false,
      "rstrip": false,
      "normalized": false,
      "special": true
    },
    {
      "id": 162,
      "content": "[S_158]",
      "single_word": true,
      "lstrip": false,
      "rstrip": false,
      "normalized": false,
      "special": true
    },
    {
      "id": 163,
      "content": "[S_159]",
      "single_word": true,
      "lstrip": false,
      "rstrip": false,
      "normalized": false,
      "special": true
    },
    {
      "id": 164,
      "content": "[S_160]",
      "single_word": true,
      "lstrip": false,
      "rstrip": false,
      "normalized": false,
      "special": true
    },
    {
      "id": 165,
      "content": "[S_161]",
      "single_word": true,
      "lstrip": false,
      "rstrip": false,
      "normalized": false,
      "special": true
    },
    {
      "id": 166,
      "content": "[S_162]",
      "single_word": true,
      "lstrip": false,
      "rstrip": false,
      "normalized": false,
      "special": true
    },
    {
      "id": 167,
      "content": "[S_163]",
      "single_word": true,
      "lstrip": false,
      "rstrip": false,
      "normalized": false,
      "special": true
    },
    {
      "id": 168,
      "content": "[S_164]",
      "single_word": true,
      "lstrip": false,
      "rstrip": false,
      "normalized": false,
      "special": true
    },
    {
      "id": 169,
      "content": "[S_165]",
      "single_word": true,
      "lstrip": false,
      "rstrip": false,
      "normalized": false,
      "special": true
    },
    {
      "id": 170,
      "content": "[S_166]",
      "single_word": true,
      "lstrip": false,
      "rstrip": false,
      "normalized": false,
      "special": true
    },
    {
      "id": 171,
      "content": "[S_167]",
      "single_word": true,
      "lstrip": false,
      "rstrip": false,
      "normalized": false,
      "special": true
    },
    {
      "id": 172,
      "content": "[S_168]",
      "single_word": true,
      "lstrip": false,
      "rstrip": false,
      "normalized": false,
      "special": true
    },
    {
      "id": 173,
      "content": "[S_169]",
      "single_word": true,
      "lstrip": false,
      "rstrip": false,
      "normalized": false,
      "special": true
    },
    {
      "id": 174,
      "content": "[S_170]",
      "single_word": true,
      "lstrip": false,
      "rstrip": false,
      "normalized": false,
      "special": true
    },
    {
      "id": 175,
      "content": "[S_171]",
      "single_word": true,
      "lstrip": false,
      "rstrip": false,
      "normalized": false,
      "special": true
    },
    {
      "id": 176,
      "content": "[S_172]",
      "single_word": true,
      "lstrip": false,
      "rstrip": false,
      "normalized": false,
      "special": true
    },
    {
      "id": 177,
      "content": "[S_173]",
      "single_word": true,
      "lstrip": false,
      "rstrip": false,
      "normalized": false,
      "special": true
    },
    {
      "id": 178,
      "content": "[S_174]",
      "single_word": true,
      "lstrip": false,
      "rstrip": false,
      "normalized": false,
      "special": true
    },
    {
      "id": 179,
      "content": "[S_175]",
      "single_word": true,
      "lstrip": false,
      "rstrip": false,
      "normalized": false,
      "special": true
    },
    {
      "id": 180,
      "content": "[S_176]",
      "single_word": true,
      "lstrip": false,
      "rstrip": false,
      "normalized": false,
      "special": true
    },
    {
      "id": 181,
      "content": "[S_177]",
      "single_word": true,
      "lstrip": false,
      "rstrip": false,
      "normalized": false,
      "special": true
    },
    {
      "id": 182,
      "content": "[S_178]",
      "single_word": true,
      "lstrip": false,
      "rstrip": false,
      "normalized": false,
      "special": true
    },
    {
      "id": 183,
      "content": "[S_179]",
      "single_word": true,
      "lstrip": false,
      "rstrip": false,
      "normalized": false,
      "special": true
    },
    {
      "id": 184,
      "content": "[S_180]",
      "single_word": true,
      "lstrip": false,
      "rstrip": false,
      "normalized": false,
      "special": true
    },
    {
      "id": 185,
      "content": "[S_181]",
      "single_word": true,
      "lstrip": false,
      "rstrip": false,
      "normalized": false,
      "special": true
    },
    {
      "id": 186,
      "content": "[S_182]",
      "single_word": true,
      "lstrip": false,
      "rstrip": false,
      "normalized": false,
      "special": true
    },
    {
      "id": 187,
      "content": "[S_183]",
      "single_word": true,
      "lstrip": false,
      "rstrip": false,
      "normalized": false,
      "special": true
    },
    {
      "id": 188,
      "content": "[S_184]",
      "single_word": true,
      "lstrip": false,
      "rstrip": false,
      "normalized": false,
      "special": true
    },
    {
      "id": 189,
      "content": "[S_185]",
      "single_word": true,
      "lstrip": false,
      "rstrip": false,
      "normalized": false,
      "special": true
    },
    {
      "id": 190,
      "content": "[S_186]",
      "single_word": true,
      "lstrip": false,
      "rstrip": false,
      "normalized": false,
      "special": true
    },
    {
      "id": 191,
      "content": "[S_187]",
      "single_word": true,
      "lstrip": false,
      "rstrip": false,
      "normalized": false,
      "special": true
    },
    {
      "id": 192,
      "content": "[S_188]",
      "single_word": true,
      "lstrip": false,
      "rstrip": false,
      "normalized": false,
      "special": true
    },
    {
      "id": 193,
      "content": "[S_189]",
      "single_word": true,
      "lstrip": false,
      "rstrip": false,
      "normalized": false,
      "special": true
    },
    {
      "id": 194,
      "content": "[S_190]",
      "single_word": true,
      "lstrip": false,
      "rstrip": false,
      "normalized": false,
      "special": true
    },
    {
      "id": 195,
      "content": "[S_191]",
      "single_word": true,
      "lstrip": false,
      "rstrip": false,
      "normalized": false,
      "special": true
    },
    {
      "id": 196,
      "content": "[S_192]",
      "single_word": true,
      "lstrip": false,
      "rstrip": false,
      "normalized": false,
      "special": true
    },
    {
      "id": 197,
      "content": "[S_193]",
      "single_word": true,
      "lstrip": false,
      "rstrip": false,
      "normalized": false,
      "special": true
    },
    {
      "id": 198,
      "content": "[S_194]",
      "single_word": true,
      "lstrip": false,
      "rstrip": false,
      "normalized": false,
      "special": true
    },
    {
      "id": 199,
      "content": "[S_195]",
      "single_word": true,
      "lstrip": false,
      "rstrip": false,
      "normalized": false,
      "special": true
    },
    {
      "id": 200,
      "content": "[S_196]",
      "single_word": true,
      "lstrip": false,
      "rstrip": false,
      "normalized": false,
      "special": true
    },
    {
      "id": 201,
      "content": "[S_197]",
      "single_word": true,
      "lstrip": false,
      "rstrip": false,
      "normalized": false,
      "special": true
    },
    {
      "id": 202,
      "content": "[S_198]",
      "single_word": true,
      "lstrip": false,
      "rstrip": false,
      "normalized": false,
      "special": true
    },
    {
      "id": 203,
      "content": "[S_199]",
      "single_word": true,
      "lstrip": false,
      "rstrip": false,
      "normalized": false,
      "special": true
    },
    {
      "id": 204,
      "content": "v0=0",
      "single_word": true,
      "lstrip": false,
      "rstrip": false,
      "normalized": false,
      "special": true
    },
    {
      "id": 205,
      "content": "v0=1",
      "single_word": true,
      "lstrip": false,
      "rstrip": false,
      "normalized": false,
      "special": true
    },
    {
      "id": 206,
      "content": "v0=2",
      "single_word": true,
      "lstrip": false,
      "rstrip": false,
      "normalized": false,
      "special": true
    },
    {
      "id": 207,
      "content": "v0=3",
      "single_word": true,
      "lstrip": false,
      "rstrip": false,
      "normalized": false,
      "special": true
    },
    {
      "id": 208,
      "content": "v0=4",
      "single_word": true,
      "lstrip": false,
      "rstrip": false,
      "normalized": false,
      "special": true
    },
    {
      "id": 209,
      "content": "v0=5",
      "single_word": true,
      "lstrip": false,
      "rstrip": false,
      "normalized": false,
      "special": true
    },
    {
      "id": 210,
      "content": "v0=6",
      "single_word": true,
      "lstrip": false,
      "rstrip": false,
      "normalized": false,
      "special": true
    },
    {
      "id": 211,
      "content": "v0=7",
      "single_word": true,
      "lstrip": false,
      "rstrip": false,
      "normalized": false,
      "special": true
    },
    {
      "id": 212,
      "content": "v0=8",
      "single_word": true,
      "lstrip": false,
      "rstrip": false,
      "normalized": false,
      "special": true
    },
    {
      "id": 213,
      "content": "v0=9",
      "single_word": true,
      "lstrip": false,
      "rstrip": false,
      "normalized": false,
      "special": true
    },
    {
      "id": 214,
      "content": "v0=10",
      "single_word": true,
      "lstrip": false,
      "rstrip": false,
      "normalized": false,
      "special": true
    },
    {
      "id": 215,
      "content": "v0=11",
      "single_word": true,
      "lstrip": false,
      "rstrip": false,
      "normalized": false,
      "special": true
    },
    {
      "id": 216,
      "content": "v0=12",
      "single_word": true,
      "lstrip": false,
      "rstrip": false,
      "normalized": false,
      "special": true
    },
    {
      "id": 217,
      "content": "v0=13",
      "single_word": true,
      "lstrip": false,
      "rstrip": false,
      "normalized": false,
      "special": true
    },
    {
      "id": 218,
      "content": "v0=14",
      "single_word": true,
      "lstrip": false,
      "rstrip": false,
      "normalized": false,
      "special": true
    },
    {
      "id": 219,
      "content": "v0=15",
      "single_word": true,
      "lstrip": false,
      "rstrip": false,
      "normalized": false,
      "special": true
    },
    {
      "id": 220,
      "content": "v0=16",
      "single_word": true,
      "lstrip": false,
      "rstrip": false,
      "normalized": false,
      "special": true
    },
    {
      "id": 221,
      "content": "v0=17",
      "single_word": true,
      "lstrip": false,
      "rstrip": false,
      "normalized": false,
      "special": true
    },
    {
      "id": 222,
      "content": "v0=18",
      "single_word": true,
      "lstrip": false,
      "rstrip": false,
      "normalized": false,
      "special": true
    },
    {
      "id": 223,
      "content": "v0=19",
      "single_word": true,
      "lstrip": false,
      "rstrip": false,
      "normalized": false,
      "special": true
    },
    {
      "id": 224,
      "content": "v0=20",
      "single_word": true,
      "lstrip": false,
      "rstrip": false,
      "normalized": false,
      "special": true
    },
    {
      "id": 225,
      "content": "v1=",
      "single_word": false,
      "lstrip": false,
      "rstrip": false,
      "normalized": false,
      "special": true
    },
    {
      "id": 226,
      "content": "[00]",
      "single_word": false,
      "lstrip": false,
      "rstrip": false,
      "normalized": false,
      "special": true
    },
    {
      "id": 227,
      "content": "[01]",
      "single_word": false,
      "lstrip": false,
      "rstrip": false,
      "normalized": false,
      "special": true
    },
    {
      "id": 228,
      "content": "[02]",
      "single_word": false,
      "lstrip": false,
      "rstrip": false,
      "normalized": false,
      "special": true
    },
    {
      "id": 229,
      "content": "[03]",
      "single_word": false,
      "lstrip": false,
      "rstrip": false,
      "normalized": false,
      "special": true
    },
    {
      "id": 230,
      "content": "[04]",
      "single_word": false,
      "lstrip": false,
      "rstrip": false,
      "normalized": false,
      "special": true
    },
    {
      "id": 231,
      "content": "[05]",
      "single_word": false,
      "lstrip": false,
      "rstrip": false,
      "normalized": false,
      "special": true
    },
    {
      "id": 232,
      "content": "[06]",
      "single_word": false,
      "lstrip": false,
      "rstrip": false,
      "normalized": false,
      "special": true
    },
    {
      "id": 233,
      "content": "[07]",
      "single_word": false,
      "lstrip": false,
      "rstrip": false,
      "normalized": false,
      "special": true
    },
    {
      "id": 234,
      "content": "[08]",
      "single_word": false,
      "lstrip": false,
      "rstrip": false,
      "normalized": false,
      "special": true
    },
    {
      "id": 235,
      "content": "[09]",
      "single_word": false,
      "lstrip": false,
      "rstrip": false,
      "normalized": false,
      "special": true
    },
    {
      "id": 236,
      "content": "[0A]",
      "single_word": false,
      "lstrip": false,
      "rstrip": false,
      "normalized": false,
      "special": true
    },
    {
      "id": 237,
      "content": "[0B]",
      "single_word": false,
      "lstrip": false,
      "rstrip": false,
      "normalized": false,
      "special": true
    },
    {
      "id": 238,
      "content": "[0D]",
      "single_word": false,
      "lstrip": false,
      "rstrip": false,
      "normalized": false,
      "special": true
    },
    {
      "id": 239,
      "content": "[0C]",
      "single_word": false,
      "lstrip": false,
      "rstrip": false,
      "normalized": false,
      "special": true
    },
    {
      "id": 240,
      "content": "[0E]",
      "single_word": false,
      "lstrip": false,
      "rstrip": false,
      "normalized": false,
      "special": true
    },
    {
      "id": 241,
      "content": "[0F]",
      "single_word": false,
      "lstrip": false,
      "rstrip": false,
      "normalized": false,
      "special": true
    },
    {
      "id": 242,
      "content": "[10]",
      "single_word": false,
      "lstrip": false,
      "rstrip": false,
      "normalized": false,
      "special": true
    },
    {
      "id": 243,
      "content": "[11]",
      "single_word": false,
      "lstrip": false,
      "rstrip": false,
      "normalized": false,
      "special": true
    },
    {
      "id": 244,
      "content": "[12]",
      "single_word": false,
      "lstrip": false,
      "rstrip": false,
      "normalized": false,
      "special": true
    },
    {
      "id": 245,
      "content": "[13]",
      "single_word": false,
      "lstrip": false,
      "rstrip": false,
      "normalized": false,
      "special": true
    },
    {
      "id": 246,
      "content": "[14]",
      "single_word": false,
      "lstrip": false,
      "rstrip": false,
      "normalized": false,
      "special": true
    },
    {
      "id": 247,
      "content": "[15]",
      "single_word": false,
      "lstrip": false,
      "rstrip": false,
      "normalized": false,
      "special": true
    },
    {
      "id": 248,
      "content": "[16]",
      "single_word": false,
      "lstrip": false,
      "rstrip": false,
      "normalized": false,
      "special": true
    },
    {
      "id": 249,
      "content": "[17]",
      "single_word": false,
      "lstrip": false,
      "rstrip": false,
      "normalized": false,
      "special": true
    },
    {
      "id": 250,
      "content": "[18]",
      "single_word": false,
      "lstrip": false,
      "rstrip": false,
      "normalized": false,
      "special": true
    },
    {
      "id": 251,
      "content": "[19]",
      "single_word": false,
      "lstrip": false,
      "rstrip": false,
      "normalized": false,
      "special": true
    },
    {
      "id": 252,
      "content": "[1A]",
      "single_word": false,
      "lstrip": false,
      "rstrip": false,
      "normalized": false,
      "special": true
    },
    {
      "id": 253,
      "content": "[1B]",
      "single_word": false,
      "lstrip": false,
      "rstrip": false,
      "normalized": false,
      "special": true
    },
    {
      "id": 254,
      "content": "[1D]",
      "single_word": false,
      "lstrip": false,
      "rstrip": false,
      "normalized": false,
      "special": true
    },
    {
      "id": 255,
      "content": "[1C]",
      "single_word": false,
      "lstrip": false,
      "rstrip": false,
      "normalized": false,
      "special": true
    },
    {
      "id": 256,
      "content": "[1E]",
      "single_word": false,
      "lstrip": false,
      "rstrip": false,
      "normalized": false,
      "special": true
    },
    {
      "id": 257,
      "content": "[1F]",
      "single_word": false,
      "lstrip": false,
      "rstrip": false,
      "normalized": false,
      "special": true
    },
    {
      "id": 258,
      "content": "[20]",
      "single_word": false,
      "lstrip": false,
      "rstrip": false,
      "normalized": false,
      "special": true
    },
    {
      "id": 259,
      "content": "[21]",
      "single_word": false,
      "lstrip": false,
      "rstrip": false,
      "normalized": false,
      "special": true
    },
    {
      "id": 260,
      "content": "[22]",
      "single_word": false,
      "lstrip": false,
      "rstrip": false,
      "normalized": false,
      "special": true
    },
    {
      "id": 261,
      "content": "[23]",
      "single_word": false,
      "lstrip": false,
      "rstrip": false,
      "normalized": false,
      "special": true
    },
    {
      "id": 262,
      "content": "[24]",
      "single_word": false,
      "lstrip": false,
      "rstrip": false,
      "normalized": false,
      "special": true
    },
    {
      "id": 263,
      "content": "[25]",
      "single_word": false,
      "lstrip": false,
      "rstrip": false,
      "normalized": false,
      "special": true
    },
    {
      "id": 264,
      "content": "[26]",
      "single_word": false,
      "lstrip": false,
      "rstrip": false,
      "normalized": false,
      "special": true
    },
    {
      "id": 265,
      "content": "[27]",
      "single_word": false,
      "lstrip": false,
      "rstrip": false,
      "normalized": false,
      "special": true
    },
    {
      "id": 266,
      "content": "[28]",
      "single_word": false,
      "lstrip": false,
      "rstrip": false,
      "normalized": false,
      "special": true
    },
    {
      "id": 267,
      "content": "[29]",
      "single_word": false,
      "lstrip": false,
      "rstrip": false,
      "normalized": false,
      "special": true
    },
    {
      "id": 268,
      "content": "[2A]",
      "single_word": false,
      "lstrip": false,
      "rstrip": false,
      "normalized": false,
      "special": true
    },
    {
      "id": 269,
      "content": "[2B]",
      "single_word": false,
      "lstrip": false,
      "rstrip": false,
      "normalized": false,
      "special": true
    },
    {
      "id": 270,
      "content": "[2D]",
      "single_word": false,
      "lstrip": false,
      "rstrip": false,
      "normalized": false,
      "special": true
    },
    {
      "id": 271,
      "content": "[2C]",
      "single_word": false,
      "lstrip": false,
      "rstrip": false,
      "normalized": false,
      "special": true
    },
    {
      "id": 272,
      "content": "[2E]",
      "single_word": false,
      "lstrip": false,
      "rstrip": false,
      "normalized": false,
      "special": true
    },
    {
      "id": 273,
      "content": "[2F]",
      "single_word": false,
      "lstrip": false,
      "rstrip": false,
      "normalized": false,
      "special": true
    },
    {
      "id": 274,
      "content": "[30]",
      "single_word": false,
      "lstrip": false,
      "rstrip": false,
      "normalized": false,
      "special": true
    },
    {
      "id": 275,
      "content": "[31]",
      "single_word": false,
      "lstrip": false,
      "rstrip": false,
      "normalized": false,
      "special": true
    },
    {
      "id": 276,
      "content": "[32]",
      "single_word": false,
      "lstrip": false,
      "rstrip": false,
      "normalized": false,
      "special": true
    },
    {
      "id": 277,
      "content": "[33]",
      "single_word": false,
      "lstrip": false,
      "rstrip": false,
      "normalized": false,
      "special": true
    },
    {
      "id": 278,
      "content": "[34]",
      "single_word": false,
      "lstrip": false,
      "rstrip": false,
      "normalized": false,
      "special": true
    },
    {
      "id": 279,
      "content": "[35]",
      "single_word": false,
      "lstrip": false,
      "rstrip": false,
      "normalized": false,
      "special": true
    },
    {
      "id": 280,
      "content": "[36]",
      "single_word": false,
      "lstrip": false,
      "rstrip": false,
      "normalized": false,
      "special": true
    },
    {
      "id": 281,
      "content": "[37]",
      "single_word": false,
      "lstrip": false,
      "rstrip": false,
      "normalized": false,
      "special": true
    },
    {
      "id": 282,
      "content": "[38]",
      "single_word": false,
      "lstrip": false,
      "rstrip": false,
      "normalized": false,
      "special": true
    },
    {
      "id": 283,
      "content": "[39]",
      "single_word": false,
      "lstrip": false,
      "rstrip": false,
      "normalized": false,
      "special": true
    },
    {
      "id": 284,
      "content": "[3A]",
      "single_word": false,
      "lstrip": false,
      "rstrip": false,
      "normalized": false,
      "special": true
    },
    {
      "id": 285,
      "content": "[3B]",
      "single_word": false,
      "lstrip": false,
      "rstrip": false,
      "normalized": false,
      "special": true
    },
    {
      "id": 286,
      "content": "[3D]",
      "single_word": false,
      "lstrip": false,
      "rstrip": false,
      "normalized": false,
      "special": true
    },
    {
      "id": 287,
      "content": "[3C]",
      "single_word": false,
      "lstrip": false,
      "rstrip": false,
      "normalized": false,
      "special": true
    },
    {
      "id": 288,
      "content": "[3E]",
      "single_word": false,
      "lstrip": false,
      "rstrip": false,
      "normalized": false,
      "special": true
    },
    {
      "id": 289,
      "content": "[3F]",
      "single_word": false,
      "lstrip": false,
      "rstrip": false,
      "normalized": false,
      "special": true
    },
    {
      "id": 290,
      "content": "[40]",
      "single_word": false,
      "lstrip": false,
      "rstrip": false,
      "normalized": false,
      "special": true
    },
    {
      "id": 291,
      "content": "[41]",
      "single_word": false,
      "lstrip": false,
      "rstrip": false,
      "normalized": false,
      "special": true
    },
    {
      "id": 292,
      "content": "[42]",
      "single_word": false,
      "lstrip": false,
      "rstrip": false,
      "normalized": false,
      "special": true
    },
    {
      "id": 293,
      "content": "[43]",
      "single_word": false,
      "lstrip": false,
      "rstrip": false,
      "normalized": false,
      "special": true
    },
    {
      "id": 294,
      "content": "[44]",
      "single_word": false,
      "lstrip": false,
      "rstrip": false,
      "normalized": false,
      "special": true
    },
    {
      "id": 295,
      "content": "[45]",
      "single_word": false,
      "lstrip": false,
      "rstrip": false,
      "normalized": false,
      "special": true
    },
    {
      "id": 296,
      "content": "[46]",
      "single_word": false,
      "lstrip": false,
      "rstrip": false,
      "normalized": false,
      "special": true
    },
    {
      "id": 297,
      "content": "[47]",
      "single_word": false,
      "lstrip": false,
      "rstrip": false,
      "normalized": false,
      "special": true
    },
    {
      "id": 298,
      "content": "[48]",
      "single_word": false,
      "lstrip": false,
      "rstrip": false,
      "normalized": false,
      "special": true
    },
    {
      "id": 299,
      "content": "[49]",
      "single_word": false,
      "lstrip": false,
      "rstrip": false,
      "normalized": false,
      "special": true
    },
    {
      "id": 300,
      "content": "[4A]",
      "single_word": false,
      "lstrip": false,
      "rstrip": false,
      "normalized": false,
      "special": true
    },
    {
      "id": 301,
      "content": "[4B]",
      "single_word": false,
      "lstrip": false,
      "rstrip": false,
      "normalized": false,
      "special": true
    },
    {
      "id": 302,
      "content": "[4D]",
      "single_word": false,
      "lstrip": false,
      "rstrip": false,
      "normalized": false,
      "special": true
    },
    {
      "id": 303,
      "content": "[4C]",
      "single_word": false,
      "lstrip": false,
      "rstrip": false,
      "normalized": false,
      "special": true
    },
    {
      "id": 304,
      "content": "[4E]",
      "single_word": false,
      "lstrip": false,
      "rstrip": false,
      "normalized": false,
      "special": true
    },
    {
      "id": 305,
      "content": "[4F]",
      "single_word": false,
      "lstrip": false,
      "rstrip": false,
      "normalized": false,
      "special": true
    },
    {
      "id": 306,
      "content": "[50]",
      "single_word": false,
      "lstrip": false,
      "rstrip": false,
      "normalized": false,
      "special": true
    },
    {
      "id": 307,
      "content": "[51]",
      "single_word": false,
      "lstrip": false,
      "rstrip": false,
      "normalized": false,
      "special": true
    },
    {
      "id": 308,
      "content": "[52]",
      "single_word": false,
      "lstrip": false,
      "rstrip": false,
      "normalized": false,
      "special": true
    },
    {
      "id": 309,
      "content": "[53]",
      "single_word": false,
      "lstrip": false,
      "rstrip": false,
      "normalized": false,
      "special": true
    },
    {
      "id": 310,
      "content": "[54]",
      "single_word": false,
      "lstrip": false,
      "rstrip": false,
      "normalized": false,
      "special": true
    },
    {
      "id": 311,
      "content": "[55]",
      "single_word": false,
      "lstrip": false,
      "rstrip": false,
      "normalized": false,
      "special": true
    },
    {
      "id": 312,
      "content": "[56]",
      "single_word": false,
      "lstrip": false,
      "rstrip": false,
      "normalized": false,
      "special": true
    },
    {
      "id": 313,
      "content": "[57]",
      "single_word": false,
      "lstrip": false,
      "rstrip": false,
      "normalized": false,
      "special": true
    },
    {
      "id": 314,
      "content": "[58]",
      "single_word": false,
      "lstrip": false,
      "rstrip": false,
      "normalized": false,
      "special": true
    },
    {
      "id": 315,
      "content": "[59]",
      "single_word": false,
      "lstrip": false,
      "rstrip": false,
      "normalized": false,
      "special": true
    },
    {
      "id": 316,
      "content": "[5A]",
      "single_word": false,
      "lstrip": false,
      "rstrip": false,
      "normalized": false,
      "special": true
    },
    {
      "id": 317,
      "content": "[5B]",
      "single_word": false,
      "lstrip": false,
      "rstrip": false,
      "normalized": false,
      "special": true
    },
    {
      "id": 318,
      "content": "[5D]",
      "single_word": false,
      "lstrip": false,
      "rstrip": false,
      "normalized": false,
      "special": true
    },
    {
      "id": 319,
      "content": "[5C]",
      "single_word": false,
      "lstrip": false,
      "rstrip": false,
      "normalized": false,
      "special": true
    },
    {
      "id": 320,
      "content": "[5E]",
      "single_word": false,
      "lstrip": false,
      "rstrip": false,
      "normalized": false,
      "special": true
    },
    {
      "id": 321,
      "content": "[5F]",
      "single_word": false,
      "lstrip": false,
      "rstrip": false,
      "normalized": false,
      "special": true
    },
    {
      "id": 322,
      "content": "[60]",
      "single_word": false,
      "lstrip": false,
      "rstrip": false,
      "normalized": false,
      "special": true
    },
    {
      "id": 323,
      "content": "[61]",
      "single_word": false,
      "lstrip": false,
      "rstrip": false,
      "normalized": false,
      "special": true
    },
    {
      "id": 324,
      "content": "[62]",
      "single_word": false,
      "lstrip": false,
      "rstrip": false,
      "normalized": false,
      "special": true
    },
    {
      "id": 325,
      "content": "[63]",
      "single_word": false,
      "lstrip": false,
      "rstrip": false,
      "normalized": false,
      "special": true
    },
    {
      "id": 326,
      "content": "[64]",
      "single_word": false,
      "lstrip": false,
      "rstrip": false,
      "normalized": false,
      "special": true
    },
    {
      "id": 327,
      "content": "[65]",
      "single_word": false,
      "lstrip": false,
      "rstrip": false,
      "normalized": false,
      "special": true
    },
    {
      "id": 328,
      "content": "[66]",
      "single_word": false,
      "lstrip": false,
      "rstrip": false,
      "normalized": false,
      "special": true
    },
    {
      "id": 329,
      "content": "[67]",
      "single_word": false,
      "lstrip": false,
      "rstrip": false,
      "normalized": false,
      "special": true
    },
    {
      "id": 330,
      "content": "[68]",
      "single_word": false,
      "lstrip": false,
      "rstrip": false,
      "normalized": false,
      "special": true
    },
    {
      "id": 331,
      "content": "[69]",
      "single_word": false,
      "lstrip": false,
      "rstrip": false,
      "normalized": false,
      "special": true
    },
    {
      "id": 332,
      "content": "[6A]",
      "single_word": false,
      "lstrip": false,
      "rstrip": false,
      "normalized": false,
      "special": true
    },
    {
      "id": 333,
      "content": "[6B]",
      "single_word": false,
      "lstrip": false,
      "rstrip": false,
      "normalized": false,
      "special": true
    },
    {
      "id": 334,
      "content": "[6D]",
      "single_word": false,
      "lstrip": false,
      "rstrip": false,
      "normalized": false,
      "special": true
    },
    {
      "id": 335,
      "content": "[6C]",
      "single_word": false,
      "lstrip": false,
      "rstrip": false,
      "normalized": false,
      "special": true
    },
    {
      "id": 336,
      "content": "[6E]",
      "single_word": false,
      "lstrip": false,
      "rstrip": false,
      "normalized": false,
      "special": true
    },
    {
      "id": 337,
      "content": "[6F]",
      "single_word": false,
      "lstrip": false,
      "rstrip": false,
      "normalized": false,
      "special": true
    },
    {
      "id": 338,
      "content": "[70]",
      "single_word": false,
      "lstrip": false,
      "rstrip": false,
      "normalized": false,
      "special": true
    },
    {
      "id": 339,
      "content": "[71]",
      "single_word": false,
      "lstrip": false,
      "rstrip": false,
      "normalized": false,
      "special": true
    },
    {
      "id": 340,
      "content": "[72]",
      "single_word": false,
      "lstrip": false,
      "rstrip": false,
      "normalized": false,
      "special": true
    },
    {
      "id": 341,
      "content": "[73]",
      "single_word": false,
      "lstrip": false,
      "rstrip": false,
      "normalized": false,
      "special": true
    },
    {
      "id": 342,
      "content": "[74]",
      "single_word": false,
      "lstrip": false,
      "rstrip": false,
      "normalized": false,
      "special": true
    },
    {
      "id": 343,
      "content": "[75]",
      "single_word": false,
      "lstrip": false,
      "rstrip": false,
      "normalized": false,
      "special": true
    },
    {
      "id": 344,
      "content": "[76]",
      "single_word": false,
      "lstrip": false,
      "rstrip": false,
      "normalized": false,
      "special": true
    },
    {
      "id": 345,
      "content": "[77]",
      "single_word": false,
      "lstrip": false,
      "rstrip": false,
      "normalized": false,
      "special": true
    },
    {
      "id": 346,
      "content": "[78]",
      "single_word": false,
      "lstrip": false,
      "rstrip": false,
      "normalized": false,
      "special": true
    },
    {
      "id": 347,
      "content": "[79]",
      "single_word": false,
      "lstrip": false,
      "rstrip": false,
      "normalized": false,
      "special": true
    },
    {
      "id": 348,
      "content": "[7A]",
      "single_word": false,
      "lstrip": false,
      "rstrip": false,
      "normalized": false,
      "special": true
    },
    {
      "id": 349,
      "content": "[7B]",
      "single_word": false,
      "lstrip": false,
      "rstrip": false,
      "normalized": false,
      "special": true
    },
    {
      "id": 350,
      "content": "[7D]",
      "single_word": false,
      "lstrip": false,
      "rstrip": false,
      "normalized": false,
      "special": true
    },
    {
      "id": 351,
      "content": "[7C]",
      "single_word": false,
      "lstrip": false,
      "rstrip": false,
      "normalized": false,
      "special": true
    },
    {
      "id": 352,
      "content": "[7E]",
      "single_word": false,
      "lstrip": false,
      "rstrip": false,
      "normalized": false,
      "special": true
    },
    {
      "id": 353,
      "content": "[7F]",
      "single_word": false,
      "lstrip": false,
      "rstrip": false,
      "normalized": false,
      "special": true
    },
    {
      "id": 354,
      "content": "[80]",
      "single_word": false,
      "lstrip": false,
      "rstrip": false,
      "normalized": false,
      "special": true
    },
    {
      "id": 355,
      "content": "[81]",
      "single_word": false,
      "lstrip": false,
      "rstrip": false,
      "normalized": false,
      "special": true
    },
    {
      "id": 356,
      "content": "[82]",
      "single_word": false,
      "lstrip": false,
      "rstrip": false,
      "normalized": false,
      "special": true
    },
    {
      "id": 357,
      "content": "[83]",
      "single_word": false,
      "lstrip": false,
      "rstrip": false,
      "normalized": false,
      "special": true
    },
    {
      "id": 358,
      "content": "[84]",
      "single_word": false,
      "lstrip": false,
      "rstrip": false,
      "normalized": false,
      "special": true
    },
    {
      "id": 359,
      "content": "[85]",
      "single_word": false,
      "lstrip": false,
      "rstrip": false,
      "normalized": false,
      "special": true
    },
    {
      "id": 360,
      "content": "[86]",
      "single_word": false,
      "lstrip": false,
      "rstrip": false,
      "normalized": false,
      "special": true
    },
    {
      "id": 361,
      "content": "[87]",
      "single_word": false,
      "lstrip": false,
      "rstrip": false,
      "normalized": false,
      "special": true
    },
    {
      "id": 362,
      "content": "[88]",
      "single_word": false,
      "lstrip": false,
      "rstrip": false,
      "normalized": false,
      "special": true
    },
    {
      "id": 363,
      "content": "[89]",
      "single_word": false,
      "lstrip": false,
      "rstrip": false,
      "normalized": false,
      "special": true
    },
    {
      "id": 364,
      "content": "[8A]",
      "single_word": false,
      "lstrip": false,
      "rstrip": false,
      "normalized": false,
      "special": true
    },
    {
      "id": 365,
      "content": "[8B]",
      "single_word": false,
      "lstrip": false,
      "rstrip": false,
      "normalized": false,
      "special": true
    },
    {
      "id": 366,
      "content": "[8D]",
      "single_word": false,
      "lstrip": false,
      "rstrip": false,
      "normalized": false,
      "special": true
    },
    {
      "id": 367,
      "content": "[8C]",
      "single_word": false,
      "lstrip": false,
      "rstrip": false,
      "normalized": false,
      "special": true
    },
    {
      "id": 368,
      "content": "[8E]",
      "single_word": false,
      "lstrip": false,
      "rstrip": false,
      "normalized": false,
      "special": true
    },
    {
      "id": 369,
      "content": "[8F]",
      "single_word": false,
      "lstrip": false,
      "rstrip": false,
      "normalized": false,
      "special": true
    },
    {
      "id": 370,
      "content": "[90]",
      "single_word": false,
      "lstrip": false,
      "rstrip": false,
      "normalized": false,
      "special": true
    },
    {
      "id": 371,
      "content": "[91]",
      "single_word": false,
      "lstrip": false,
      "rstrip": false,
      "normalized": false,
      "special": true
    },
    {
      "id": 372,
      "content": "[92]",
      "single_word": false,
      "lstrip": false,
      "rstrip": false,
      "normalized": false,
      "special": true
    },
    {
      "id": 373,
      "content": "[93]",
      "single_word": false,
      "lstrip": false,
      "rstrip": false,
      "normalized": false,
      "special": true
    },
    {
      "id": 374,
      "content": "[94]",
      "single_word": false,
      "lstrip": false,
      "rstrip": false,
      "normalized": false,
      "special": true
    },
    {
      "id": 375,
      "content": "[95]",
      "single_word": false,
      "lstrip": false,
      "rstrip": false,
      "normalized": false,
      "special": true
    },
    {
      "id": 376,
      "content": "[96]",
      "single_word": false,
      "lstrip": false,
      "rstrip": false,
      "normalized": false,
      "special": true
    },
    {
      "id": 377,
      "content": "[97]",
      "single_word": false,
      "lstrip": false,
      "rstrip": false,
      "normalized": false,
      "special": true
    },
    {
      "id": 378,
      "content": "[98]",
      "single_word": false,
      "lstrip": false,
      "rstrip": false,
      "normalized": false,
      "special": true
    },
    {
      "id": 379,
      "content": "[99]",
      "single_word": false,
      "lstrip": false,
      "rstrip": false,
      "normalized": false,
      "special": true
    },
    {
      "id": 380,
      "content": "[9A]",
      "single_word": false,
      "lstrip": false,
      "rstrip": false,
      "normalized": false,
      "special": true
    },
    {
      "id": 381,
      "content": "[9B]",
      "single_word": false,
      "lstrip": false,
      "rstrip": false,
      "normalized": false,
      "special": true
    },
    {
      "id": 382,
      "content": "[9D]",
      "single_word": false,
      "lstrip": false,
      "rstrip": false,
      "normalized": false,
      "special": true
    },
    {
      "id": 383,
      "content": "[9C]",
      "single_word": false,
      "lstrip": false,
      "rstrip": false,
      "normalized": false,
      "special": true
    },
    {
      "id": 384,
      "content": "[9E]",
      "single_word": false,
      "lstrip": false,
      "rstrip": false,
      "normalized": false,
      "special": true
    },
    {
      "id": 385,
      "content": "[9F]",
      "single_word": false,
      "lstrip": false,
      "rstrip": false,
      "normalized": false,
      "special": true
    },
    {
      "id": 386,
      "content": "[A0]",
      "single_word": false,
      "lstrip": false,
      "rstrip": false,
      "normalized": false,
      "special": true
    },
    {
      "id": 387,
      "content": "[A1]",
      "single_word": false,
      "lstrip": false,
      "rstrip": false,
      "normalized": false,
      "special": true
    },
    {
      "id": 388,
      "content": "[A2]",
      "single_word": false,
      "lstrip": false,
      "rstrip": false,
      "normalized": false,
      "special": true
    },
    {
      "id": 389,
      "content": "[A3]",
      "single_word": false,
      "lstrip": false,
      "rstrip": false,
      "normalized": false,
      "special": true
    },
    {
      "id": 390,
      "content": "[A4]",
      "single_word": false,
      "lstrip": false,
      "rstrip": false,
      "normalized": false,
      "special": true
    },
    {
      "id": 391,
      "content": "[A5]",
      "single_word": false,
      "lstrip": false,
      "rstrip": false,
      "normalized": false,
      "special": true
    },
    {
      "id": 392,
      "content": "[A6]",
      "single_word": false,
      "lstrip": false,
      "rstrip": false,
      "normalized": false,
      "special": true
    },
    {
      "id": 393,
      "content": "[A7]",
      "single_word": false,
      "lstrip": false,
      "rstrip": false,
      "normalized": false,
      "special": true
    },
    {
      "id": 394,
      "content": "[A8]",
      "single_word": false,
      "lstrip": false,
      "rstrip": false,
      "normalized": false,
      "special": true
    },
    {
      "id": 395,
      "content": "[A9]",
      "single_word": false,
      "lstrip": false,
      "rstrip": false,
      "normalized": false,
      "special": true
    },
    {
      "id": 396,
      "content": "[AA]",
      "single_word": false,
      "lstrip": false,
      "rstrip": false,
      "normalized": false,
      "special": true
    },
    {
      "id": 397,
      "content": "[AB]",
      "single_word": false,
      "lstrip": false,
      "rstrip": false,
      "normalized": false,
      "special": true
    },
    {
      "id": 398,
      "content": "[AD]",
      "single_word": false,
      "lstrip": false,
      "rstrip": false,
      "normalized": false,
      "special": true
    },
    {
      "id": 399,
      "content": "[AC]",
      "single_word": false,
      "lstrip": false,
      "rstrip": false,
      "normalized": false,
      "special": true
    },
    {
      "id": 400,
      "content": "[AE]",
      "single_word": false,
      "lstrip": false,
      "rstrip": false,
      "normalized": false,
      "special": true
    },
    {
      "id": 401,
      "content": "[AF]",
      "single_word": false,
      "lstrip": false,
      "rstrip": false,
      "normalized": false,
      "special": true
    },
    {
      "id": 402,
      "content": "[B0]",
      "single_word": false,
      "lstrip": false,
      "rstrip": false,
      "normalized": false,
      "special": true
    },
    {
      "id": 403,
      "content": "[B1]",
      "single_word": false,
      "lstrip": false,
      "rstrip": false,
      "normalized": false,
      "special": true
    },
    {
      "id": 404,
      "content": "[B2]",
      "single_word": false,
      "lstrip": false,
      "rstrip": false,
      "normalized": false,
      "special": true
    },
    {
      "id": 405,
      "content": "[B3]",
      "single_word": false,
      "lstrip": false,
      "rstrip": false,
      "normalized": false,
      "special": true
    },
    {
      "id": 406,
      "content": "[B4]",
      "single_word": false,
      "lstrip": false,
      "rstrip": false,
      "normalized": false,
      "special": true
    },
    {
      "id": 407,
      "content": "[B5]",
      "single_word": false,
      "lstrip": false,
      "rstrip": false,
      "normalized": false,
      "special": true
    },
    {
      "id": 408,
      "content": "[B6]",
      "single_word": false,
      "lstrip": false,
      "rstrip": false,
      "normalized": false,
      "special": true
    },
    {
      "id": 409,
      "content": "[B7]",
      "single_word": false,
      "lstrip": false,
      "rstrip": false,
      "normalized": false,
      "special": true
    },
    {
      "id": 410,
      "content": "[B8]",
      "single_word": false,
      "lstrip": false,
      "rstrip": false,
      "normalized": false,
      "special": true
    },
    {
      "id": 411,
      "content": "[B9]",
      "single_word": false,
      "lstrip": false,
      "rstrip": false,
      "normalized": false,
      "special": true
    },
    {
      "id": 412,
      "content": "[BA]",
      "single_word": false,
      "lstrip": false,
      "rstrip": false,
      "normalized": false,
      "special": true
    },
    {
      "id": 413,
      "content": "[BB]",
      "single_word": false,
      "lstrip": false,
      "rstrip": false,
      "normalized": false,
      "special": true
    },
    {
      "id": 414,
      "content": "[BD]",
      "single_word": false,
      "lstrip": false,
      "rstrip": false,
      "normalized": false,
      "special": true
    },
    {
      "id": 415,
      "content": "[BC]",
      "single_word": false,
      "lstrip": false,
      "rstrip": false,
      "normalized": false,
      "special": true
    },
    {
      "id": 416,
      "content": "[BE]",
      "single_word": false,
      "lstrip": false,
      "rstrip": false,
      "normalized": false,
      "special": true
    },
    {
      "id": 417,
      "content": "[BF]",
      "single_word": false,
      "lstrip": false,
      "rstrip": false,
      "normalized": false,
      "special": true
    },
    {
      "id": 418,
      "content": "[D0]",
      "single_word": false,
      "lstrip": false,
      "rstrip": false,
      "normalized": false,
      "special": true
    },
    {
      "id": 419,
      "content": "[D1]",
      "single_word": false,
      "lstrip": false,
      "rstrip": false,
      "normalized": false,
      "special": true
    },
    {
      "id": 420,
      "content": "[D2]",
      "single_word": false,
      "lstrip": false,
      "rstrip": false,
      "normalized": false,
      "special": true
    },
    {
      "id": 421,
      "content": "[D3]",
      "single_word": false,
      "lstrip": false,
      "rstrip": false,
      "normalized": false,
      "special": true
    },
    {
      "id": 422,
      "content": "[D4]",
      "single_word": false,
      "lstrip": false,
      "rstrip": false,
      "normalized": false,
      "special": true
    },
    {
      "id": 423,
      "content": "[D5]",
      "single_word": false,
      "lstrip": false,
      "rstrip": false,
      "normalized": false,
      "special": true
    },
    {
      "id": 424,
      "content": "[D6]",
      "single_word": false,
      "lstrip": false,
      "rstrip": false,
      "normalized": false,
      "special": true
    },
    {
      "id": 425,
      "content": "[D7]",
      "single_word": false,
      "lstrip": false,
      "rstrip": false,
      "normalized": false,
      "special": true
    },
    {
      "id": 426,
      "content": "[D8]",
      "single_word": false,
      "lstrip": false,
      "rstrip": false,
      "normalized": false,
      "special": true
    },
    {
      "id": 427,
      "content": "[D9]",
      "single_word": false,
      "lstrip": false,
      "rstrip": false,
      "normalized": false,
      "special": true
    },
    {
      "id": 428,
      "content": "[DA]",
      "single_word": false,
      "lstrip": false,
      "rstrip": false,
      "normalized": false,
      "special": true
    },
    {
      "id": 429,
      "content": "[DB]",
      "single_word": false,
      "lstrip": false,
      "rstrip": false,
      "normalized": false,
      "special": true
    },
    {
      "id": 430,
      "content": "[DD]",
      "single_word": false,
      "lstrip": false,
      "rstrip": false,
      "normalized": false,
      "special": true
    },
    {
      "id": 431,
      "content": "[DC]",
      "single_word": false,
      "lstrip": false,
      "rstrip": false,
      "normalized": false,
      "special": true
    },
    {
      "id": 432,
      "content": "[DE]",
      "single_word": false,
      "lstrip": false,
      "rstrip": false,
      "normalized": false,
      "special": true
    },
    {
      "id": 433,
      "content": "[DF]",
      "single_word": false,
      "lstrip": false,
      "rstrip": false,
      "normalized": false,
      "special": true
    },
    {
      "id": 434,
      "content": "[C0]",
      "single_word": false,
      "lstrip": false,
      "rstrip": false,
      "normalized": false,
      "special": true
    },
    {
      "id": 435,
      "content": "[C1]",
      "single_word": false,
      "lstrip": false,
      "rstrip": false,
      "normalized": false,
      "special": true
    },
    {
      "id": 436,
      "content": "[C2]",
      "single_word": false,
      "lstrip": false,
      "rstrip": false,
      "normalized": false,
      "special": true
    },
    {
      "id": 437,
      "content": "[C3]",
      "single_word": false,
      "lstrip": false,
      "rstrip": false,
      "normalized": false,
      "special": true
    },
    {
      "id": 438,
      "content": "[C4]",
      "single_word": false,
      "lstrip": false,
      "rstrip": false,
      "normalized": false,
      "special": true
    },
    {
      "id": 439,
      "content": "[C5]",
      "single_word": false,
      "lstrip": false,
      "rstrip": false,
      "normalized": false,
      "special": true
    },
    {
      "id": 440,
      "content": "[C6]",
      "single_word": false,
      "lstrip": false,
      "rstrip": false,
      "normalized": false,
      "special": true
    },
    {
      "id": 441,
      "content": "[C7]",
      "single_word": false,
      "lstrip": false,
      "rstrip": false,
      "normalized": false,
      "special": true
    },
    {
      "id": 442,
      "content": "[C8]",
      "single_word": false,
      "lstrip": false,
      "rstrip": false,
      "normalized": false,
      "special": true
    },
    {
      "id": 443,
      "content": "[C9]",
      "single_word": false,
      "lstrip": false,
      "rstrip": false,
      "normalized": false,
      "special": true
    },
    {
      "id": 444,
      "content": "[CA]",
      "single_word": false,
      "lstrip": false,
      "rstrip": false,
      "normalized": false,
      "special": true
    },
    {
      "id": 445,
      "content": "[CB]",
      "single_word": false,
      "lstrip": false,
      "rstrip": false,
      "normalized": false,
      "special": true
    },
    {
      "id": 446,
      "content": "[CD]",
      "single_word": false,
      "lstrip": false,
      "rstrip": false,
      "normalized": false,
      "special": true
    },
    {
      "id": 447,
      "content": "[CC]",
      "single_word": false,
      "lstrip": false,
      "rstrip": false,
      "normalized": false,
      "special": true
    },
    {
      "id": 448,
      "content": "[CE]",
      "single_word": false,
      "lstrip": false,
      "rstrip": false,
      "normalized": false,
      "special": true
    },
    {
      "id": 449,
      "content": "[CF]",
      "single_word": false,
      "lstrip": false,
      "rstrip": false,
      "normalized": false,
      "special": true
    },
    {
      "id": 450,
      "content": "[E0]",
      "single_word": false,
      "lstrip": false,
      "rstrip": false,
      "normalized": false,
      "special": true
    },
    {
      "id": 451,
      "content": "[E1]",
      "single_word": false,
      "lstrip": false,
      "rstrip": false,
      "normalized": false,
      "special": true
    },
    {
      "id": 452,
      "content": "[E2]",
      "single_word": false,
      "lstrip": false,
      "rstrip": false,
      "normalized": false,
      "special": true
    },
    {
      "id": 453,
      "content": "[E3]",
      "single_word": false,
      "lstrip": false,
      "rstrip": false,
      "normalized": false,
      "special": true
    },
    {
      "id": 454,
      "content": "[E4]",
      "single_word": false,
      "lstrip": false,
      "rstrip": false,
      "normalized": false,
      "special": true
    },
    {
      "id": 455,
      "content": "[E5]",
      "single_word": false,
      "lstrip": false,
      "rstrip": false,
      "normalized": false,
      "special": true
    },
    {
      "id": 456,
      "content": "[E6]",
      "single_word": false,
      "lstrip": false,
      "rstrip": false,
      "normalized": false,
      "special": true
    },
    {
      "id": 457,
      "content": "[E7]",
      "single_word": false,
      "lstrip": false,
      "rstrip": false,
      "normalized": false,
      "special": true
    },
    {
      "id": 458,
      "content": "[E8]",
      "single_word": false,
      "lstrip": false,
      "rstrip": false,
      "normalized": false,
      "special": true
    },
    {
      "id": 459,
      "content": "[E9]",
      "single_word": false,
      "lstrip": false,
      "rstrip": false,
      "normalized": false,
      "special": true
    },
    {
      "id": 460,
      "content": "[EA]",
      "single_word": false,
      "lstrip": false,
      "rstrip": false,
      "normalized": false,
      "special": true
    },
    {
      "id": 461,
      "content": "[EB]",
      "single_word": false,
      "lstrip": false,
      "rstrip": false,
      "normalized": false,
      "special": true
    },
    {
      "id": 462,
      "content": "[ED]",
      "single_word": false,
      "lstrip": false,
      "rstrip": false,
      "normalized": false,
      "special": true
    },
    {
      "id": 463,
      "content": "[EC]",
      "single_word": false,
      "lstrip": false,
      "rstrip": false,
      "normalized": false,
      "special": true
    },
    {
      "id": 464,
      "content": "[EE]",
      "single_word": false,
      "lstrip": false,
      "rstrip": false,
      "normalized": false,
      "special": true
    },
    {
      "id": 465,
      "content": "[EF]",
      "single_word": false,
      "lstrip": false,
      "rstrip": false,
      "normalized": false,
      "special": true
    },
    {
      "id": 466,
      "content": "[F0]",
      "single_word": false,
      "lstrip": false,
      "rstrip": false,
      "normalized": false,
      "special": true
    },
    {
      "id": 467,
      "content": "[F1]",
      "single_word": false,
      "lstrip": false,
      "rstrip": false,
      "normalized": false,
      "special": true
    },
    {
      "id": 468,
      "content": "[F2]",
      "single_word": false,
      "lstrip": false,
      "rstrip": false,
      "normalized": false,
      "special": true
    },
    {
      "id": 469,
      "content": "[F3]",
      "single_word": false,
      "lstrip": false,
      "rstrip": false,
      "normalized": false,
      "special": true
    },
    {
      "id": 470,
      "content": "[F4]",
      "single_word": false,
      "lstrip": false,
      "rstrip": false,
      "normalized": false,
      "special": true
    },
    {
      "id": 471,
      "content": "[F5]",
      "single_word": false,
      "lstrip": false,
      "rstrip": false,
      "normalized": false,
      "special": true
    },
    {
      "id": 472,
      "content": "[F6]",
      "single_word": false,
      "lstrip": false,
      "rstrip": false,
      "normalized": false,
      "special": true
    },
    {
      "id": 473,
      "content": "[F7]",
      "single_word": false,
      "lstrip": false,
      "rstrip": false,
      "normalized": false,
      "special": true
    },
    {
      "id": 474,
      "content": "[F8]",
      "single_word": false,
      "lstrip": false,
      "rstrip": false,
      "normalized": false,
      "special": true
    },
    {
      "id": 475,
      "content": "[F9]",
      "single_word": false,
      "lstrip": false,
      "rstrip": false,
      "normalized": false,
      "special": true
    },
    {
      "id": 476,
      "content": "[FA]",
      "single_word": false,
      "lstrip": false,
      "rstrip": false,
      "normalized": false,
      "special": true
    },
    {
      "id": 477,
      "content": "[FB]",
      "single_word": false,
      "lstrip": false,
      "rstrip": false,
      "normalized": false,
      "special": true
    },
    {
      "id": 478,
      "content": "[FD]",
      "single_word": false,
      "lstrip": false,
      "rstrip": false,
      "normalized": false,
      "special": true
    },
    {
      "id": 479,
      "content": "[FC]",
      "single_word": false,
      "lstrip": false,
      "rstrip": false,
      "normalized": false,
      "special": true
    },
    {
      "id": 480,
      "content": "[FE]",
      "single_word": false,
      "lstrip": false,
      "rstrip": false,
      "normalized": false,
      "special": true
    },
    {
      "id": 481,
      "content": "[FF]",
      "single_word": false,
      "lstrip": false,
      "rstrip": false,
      "normalized": false,
      "special": true
    },
    {
      "id": 482,
      "content": "[1970]-",
      "single_word": false,
      "lstrip": false,
      "rstrip": false,
      "normalized": false,
      "special": true
    },
    {
      "id": 483,
      "content": "[1971]-",
      "single_word": false,
      "lstrip": false,
      "rstrip": false,
      "normalized": false,
      "special": true
    },
    {
      "id": 484,
      "content": "[1972]-",
      "single_word": false,
      "lstrip": false,
      "rstrip": false,
      "normalized": false,
      "special": true
    },
    {
      "id": 485,
      "content": "[1973]-",
      "single_word": false,
      "lstrip": false,
      "rstrip": false,
      "normalized": false,
      "special": true
    },
    {
      "id": 486,
      "content": "[1974]-",
      "single_word": false,
      "lstrip": false,
      "rstrip": false,
      "normalized": false,
      "special": true
    },
    {
      "id": 487,
      "content": "[1975]-",
      "single_word": false,
      "lstrip": false,
      "rstrip": false,
      "normalized": false,
      "special": true
    },
    {
      "id": 488,
      "content": "[1976]-",
      "single_word": false,
      "lstrip": false,
      "rstrip": false,
      "normalized": false,
      "special": true
    },
    {
      "id": 489,
      "content": "[1977]-",
      "single_word": false,
      "lstrip": false,
      "rstrip": false,
      "normalized": false,
      "special": true
    },
    {
      "id": 490,
      "content": "[1978]-",
      "single_word": false,
      "lstrip": false,
      "rstrip": false,
      "normalized": false,
      "special": true
    },
    {
      "id": 491,
      "content": "[1979]-",
      "single_word": false,
      "lstrip": false,
      "rstrip": false,
      "normalized": false,
      "special": true
    },
    {
      "id": 492,
      "content": "[1980]-",
      "single_word": false,
      "lstrip": false,
      "rstrip": false,
      "normalized": false,
      "special": true
    },
    {
      "id": 493,
      "content": "[1981]-",
      "single_word": false,
      "lstrip": false,
      "rstrip": false,
      "normalized": false,
      "special": true
    },
    {
      "id": 494,
      "content": "[1982]-",
      "single_word": false,
      "lstrip": false,
      "rstrip": false,
      "normalized": false,
      "special": true
    },
    {
      "id": 495,
      "content": "[1983]-",
      "single_word": false,
      "lstrip": false,
      "rstrip": false,
      "normalized": false,
      "special": true
    },
    {
      "id": 496,
      "content": "[1984]-",
      "single_word": false,
      "lstrip": false,
      "rstrip": false,
      "normalized": false,
      "special": true
    },
    {
      "id": 497,
      "content": "[1985]-",
      "single_word": false,
      "lstrip": false,
      "rstrip": false,
      "normalized": false,
      "special": true
    },
    {
      "id": 498,
      "content": "[1986]-",
      "single_word": false,
      "lstrip": false,
      "rstrip": false,
      "normalized": false,
      "special": true
    },
    {
      "id": 499,
      "content": "[1987]-",
      "single_word": false,
      "lstrip": false,
      "rstrip": false,
      "normalized": false,
      "special": true
    },
    {
      "id": 500,
      "content": "[1988]-",
      "single_word": false,
      "lstrip": false,
      "rstrip": false,
      "normalized": false,
      "special": true
    },
    {
      "id": 501,
      "content": "[1989]-",
      "single_word": false,
      "lstrip": false,
      "rstrip": false,
      "normalized": false,
      "special": true
    },
    {
      "id": 502,
      "content": "[1990]-",
      "single_word": false,
      "lstrip": false,
      "rstrip": false,
      "normalized": false,
      "special": true
    },
    {
      "id": 503,
      "content": "[1991]-",
      "single_word": false,
      "lstrip": false,
      "rstrip": false,
      "normalized": false,
      "special": true
    },
    {
      "id": 504,
      "content": "[1992]-",
      "single_word": false,
      "lstrip": false,
      "rstrip": false,
      "normalized": false,
      "special": true
    },
    {
      "id": 505,
      "content": "[1993]-",
      "single_word": false,
      "lstrip": false,
      "rstrip": false,
      "normalized": false,
      "special": true
    },
    {
      "id": 506,
      "content": "[1994]-",
      "single_word": false,
      "lstrip": false,
      "rstrip": false,
      "normalized": false,
      "special": true
    },
    {
      "id": 507,
      "content": "[1995]-",
      "single_word": false,
      "lstrip": false,
      "rstrip": false,
      "normalized": false,
      "special": true
    },
    {
      "id": 508,
      "content": "[1996]-",
      "single_word": false,
      "lstrip": false,
      "rstrip": false,
      "normalized": false,
      "special": true
    },
    {
      "id": 509,
      "content": "[1997]-",
      "single_word": false,
      "lstrip": false,
      "rstrip": false,
      "normalized": false,
      "special": true
    },
    {
      "id": 510,
      "content": "[1998]-",
      "single_word": false,
      "lstrip": false,
      "rstrip": false,
      "normalized": false,
      "special": true
    },
    {
      "id": 511,
      "content": "[1999]-",
      "single_word": false,
      "lstrip": false,
      "rstrip": false,
      "normalized": false,
      "special": true
    },
    {
      "id": 512,
      "content": "[2000]-",
      "single_word": false,
      "lstrip": false,
      "rstrip": false,
      "normalized": false,
      "special": true
    },
    {
      "id": 513,
      "content": "[2001]-",
      "single_word": false,
      "lstrip": false,
      "rstrip": false,
      "normalized": false,
      "special": true
    },
    {
      "id": 514,
      "content": "[2002]-",
      "single_word": false,
      "lstrip": false,
      "rstrip": false,
      "normalized": false,
      "special": true
    },
    {
      "id": 515,
      "content": "[2003]-",
      "single_word": false,
      "lstrip": false,
      "rstrip": false,
      "normalized": false,
      "special": true
    },
    {
      "id": 516,
      "content": "[2004]-",
      "single_word": false,
      "lstrip": false,
      "rstrip": false,
      "normalized": false,
      "special": true
    },
    {
      "id": 517,
      "content": "[2005]-",
      "single_word": false,
      "lstrip": false,
      "rstrip": false,
      "normalized": false,
      "special": true
    },
    {
      "id": 518,
      "content": "[2006]-",
      "single_word": false,
      "lstrip": false,
      "rstrip": false,
      "normalized": false,
      "special": true
    },
    {
      "id": 519,
      "content": "[2007]-",
      "single_word": false,
      "lstrip": false,
      "rstrip": false,
      "normalized": false,
      "special": true
    },
    {
      "id": 520,
      "content": "[2008]-",
      "single_word": false,
      "lstrip": false,
      "rstrip": false,
      "normalized": false,
      "special": true
    },
    {
      "id": 521,
      "content": "[2009]-",
      "single_word": false,
      "lstrip": false,
      "rstrip": false,
      "normalized": false,
      "special": true
    },
    {
      "id": 522,
      "content": "[2010]-",
      "single_word": false,
      "lstrip": false,
      "rstrip": false,
      "normalized": false,
      "special": true
    },
    {
      "id": 523,
      "content": "[2011]-",
      "single_word": false,
      "lstrip": false,
      "rstrip": false,
      "normalized": false,
      "special": true
    },
    {
      "id": 524,
      "content": "[2012]-",
      "single_word": false,
      "lstrip": false,
      "rstrip": false,
      "normalized": false,
      "special": true
    },
    {
      "id": 525,
      "content": "[2013]-",
      "single_word": false,
      "lstrip": false,
      "rstrip": false,
      "normalized": false,
      "special": true
    },
    {
      "id": 526,
      "content": "[2014]-",
      "single_word": false,
      "lstrip": false,
      "rstrip": false,
      "normalized": false,
      "special": true
    },
    {
      "id": 527,
      "content": "[2015]-",
      "single_word": false,
      "lstrip": false,
      "rstrip": false,
      "normalized": false,
      "special": true
    },
    {
      "id": 528,
      "content": "[2016]-",
      "single_word": false,
      "lstrip": false,
      "rstrip": false,
      "normalized": false,
      "special": true
    },
    {
      "id": 529,
      "content": "[2017]-",
      "single_word": false,
      "lstrip": false,
      "rstrip": false,
      "normalized": false,
      "special": true
    },
    {
      "id": 530,
      "content": "[2018]-",
      "single_word": false,
      "lstrip": false,
      "rstrip": false,
      "normalized": false,
      "special": true
    },
    {
      "id": 531,
      "content": "[2019]-",
      "single_word": false,
      "lstrip": false,
      "rstrip": false,
      "normalized": false,
      "special": true
    },
    {
      "id": 532,
      "content": "[2020]-",
      "single_word": false,
      "lstrip": false,
      "rstrip": false,
      "normalized": false,
      "special": true
    },
    {
      "id": 533,
      "content": "[2021]-",
      "single_word": false,
      "lstrip": false,
      "rstrip": false,
      "normalized": false,
      "special": true
    },
    {
      "id": 534,
      "content": "[2022]-",
      "single_word": false,
      "lstrip": false,
      "rstrip": false,
      "normalized": false,
      "special": true
    },
    {
      "id": 535,
      "content": "[2023]-",
      "single_word": false,
      "lstrip": false,
      "rstrip": false,
      "normalized": false,
      "special": true
    },
    {
      "id": 536,
      "content": "[2024]-",
      "single_word": false,
      "lstrip": false,
      "rstrip": false,
      "normalized": false,
      "special": true
    },
    {
      "id": 537,
      "content": "-[01]-",
      "single_word": false,
      "lstrip": false,
      "rstrip": false,
      "normalized": false,
      "special": true
    },
    {
      "id": 538,
      "content": "-[02]-",
      "single_word": false,
      "lstrip": false,
      "rstrip": false,
      "normalized": false,
      "special": true
    },
    {
      "id": 539,
      "content": "-[03]-",
      "single_word": false,
      "lstrip": false,
      "rstrip": false,
      "normalized": false,
      "special": true
    },
    {
      "id": 540,
      "content": "-[04]-",
      "single_word": false,
      "lstrip": false,
      "rstrip": false,
      "normalized": false,
      "special": true
    },
    {
      "id": 541,
      "content": "-[05]-",
      "single_word": false,
      "lstrip": false,
      "rstrip": false,
      "normalized": false,
      "special": true
    },
    {
      "id": 542,
      "content": "-[06]-",
      "single_word": false,
      "lstrip": false,
      "rstrip": false,
      "normalized": false,
      "special": true
    },
    {
      "id": 543,
      "content": "-[07]-",
      "single_word": false,
      "lstrip": false,
      "rstrip": false,
      "normalized": false,
      "special": true
    },
    {
      "id": 544,
      "content": "-[08]-",
      "single_word": false,
      "lstrip": false,
      "rstrip": false,
      "normalized": false,
      "special": true
    },
    {
      "id": 545,
      "content": "-[09]-",
      "single_word": false,
      "lstrip": false,
      "rstrip": false,
      "normalized": false,
      "special": true
    },
    {
      "id": 546,
      "content": "-[10]-",
      "single_word": false,
      "lstrip": false,
      "rstrip": false,
      "normalized": false,
      "special": true
    },
    {
      "id": 547,
      "content": "-[11]-",
      "single_word": false,
      "lstrip": false,
      "rstrip": false,
      "normalized": false,
      "special": true
    },
    {
      "id": 548,
      "content": "-[12]-",
      "single_word": false,
      "lstrip": false,
      "rstrip": false,
      "normalized": false,
      "special": true
    },
    {
      "id": 549,
      "content": "-[01]",
      "single_word": false,
      "lstrip": false,
      "rstrip": false,
      "normalized": false,
      "special": true
    },
    {
      "id": 550,
      "content": "-[02]",
      "single_word": false,
      "lstrip": false,
      "rstrip": false,
      "normalized": false,
      "special": true
    },
    {
      "id": 551,
      "content": "-[03]",
      "single_word": false,
      "lstrip": false,
      "rstrip": false,
      "normalized": false,
      "special": true
    },
    {
      "id": 552,
      "content": "-[04]",
      "single_word": false,
      "lstrip": false,
      "rstrip": false,
      "normalized": false,
      "special": true
    },
    {
      "id": 553,
      "content": "-[05]",
      "single_word": false,
      "lstrip": false,
      "rstrip": false,
      "normalized": false,
      "special": true
    },
    {
      "id": 554,
      "content": "-[06]",
      "single_word": false,
      "lstrip": false,
      "rstrip": false,
      "normalized": false,
      "special": true
    },
    {
      "id": 555,
      "content": "-[07]",
      "single_word": false,
      "lstrip": false,
      "rstrip": false,
      "normalized": false,
      "special": true
    },
    {
      "id": 556,
      "content": "-[08]",
      "single_word": false,
      "lstrip": false,
      "rstrip": false,
      "normalized": false,
      "special": true
    },
    {
      "id": 557,
      "content": "-[09]",
      "single_word": false,
      "lstrip": false,
      "rstrip": false,
      "normalized": false,
      "special": true
    },
    {
      "id": 558,
      "content": "-[10]",
      "single_word": false,
      "lstrip": false,
      "rstrip": false,
      "normalized": false,
      "special": true
    },
    {
      "id": 559,
      "content": "-[11]",
      "single_word": false,
      "lstrip": false,
      "rstrip": false,
      "normalized": false,
      "special": true
    },
    {
      "id": 560,
      "content": "-[12]",
      "single_word": false,
      "lstrip": false,
      "rstrip": false,
      "normalized": false,
      "special": true
    },
    {
      "id": 561,
      "content": "-[13]",
      "single_word": false,
      "lstrip": false,
      "rstrip": false,
      "normalized": false,
      "special": true
    },
    {
      "id": 562,
      "content": "-[14]",
      "single_word": false,
      "lstrip": false,
      "rstrip": false,
      "normalized": false,
      "special": true
    },
    {
      "id": 563,
      "content": "-[15]",
      "single_word": false,
      "lstrip": false,
      "rstrip": false,
      "normalized": false,
      "special": true
    },
    {
      "id": 564,
      "content": "-[16]",
      "single_word": false,
      "lstrip": false,
      "rstrip": false,
      "normalized": false,
      "special": true
    },
    {
      "id": 565,
      "content": "-[17]",
      "single_word": false,
      "lstrip": false,
      "rstrip": false,
      "normalized": false,
      "special": true
    },
    {
      "id": 566,
      "content": "-[18]",
      "single_word": false,
      "lstrip": false,
      "rstrip": false,
      "normalized": false,
      "special": true
    },
    {
      "id": 567,
      "content": "-[19]",
      "single_word": false,
      "lstrip": false,
      "rstrip": false,
      "normalized": false,
      "special": true
    },
    {
      "id": 568,
      "content": "-[20]",
      "single_word": false,
      "lstrip": false,
      "rstrip": false,
      "normalized": false,
      "special": true
    },
    {
      "id": 569,
      "content": "-[21]",
      "single_word": false,
      "lstrip": false,
      "rstrip": false,
      "normalized": false,
      "special": true
    },
    {
      "id": 570,
      "content": "-[22]",
      "single_word": false,
      "lstrip": false,
      "rstrip": false,
      "normalized": false,
      "special": true
    },
    {
      "id": 571,
      "content": "-[23]",
      "single_word": false,
      "lstrip": false,
      "rstrip": false,
      "normalized": false,
      "special": true
    },
    {
      "id": 572,
      "content": "-[24]",
      "single_word": false,
      "lstrip": false,
      "rstrip": false,
      "normalized": false,
      "special": true
    },
    {
      "id": 573,
      "content": "-[25]",
      "single_word": false,
      "lstrip": false,
      "rstrip": false,
      "normalized": false,
      "special": true
    },
    {
      "id": 574,
      "content": "-[26]",
      "single_word": false,
      "lstrip": false,
      "rstrip": false,
      "normalized": false,
      "special": true
    },
    {
      "id": 575,
      "content": "-[27]",
      "single_word": false,
      "lstrip": false,
      "rstrip": false,
      "normalized": false,
      "special": true
    },
    {
      "id": 576,
      "content": "-[28]",
      "single_word": false,
      "lstrip": false,
      "rstrip": false,
      "normalized": false,
      "special": true
    },
    {
      "id": 577,
      "content": "-[29]",
      "single_word": false,
      "lstrip": false,
      "rstrip": false,
      "normalized": false,
      "special": true
    },
    {
      "id": 578,
      "content": "-[30]",
      "single_word": false,
      "lstrip": false,
      "rstrip": false,
      "normalized": false,
      "special": true
    },
    {
      "id": 579,
      "content": "-[31]",
      "single_word": false,
      "lstrip": false,
      "rstrip": false,
      "normalized": false,
      "special": true
    },
    {
      "id": 580,
      "content": "[00]:",
      "single_word": false,
      "lstrip": false,
      "rstrip": false,
      "normalized": false,
      "special": true
    },
    {
      "id": 581,
      "content": "[01]:",
      "single_word": false,
      "lstrip": false,
      "rstrip": false,
      "normalized": false,
      "special": true
    },
    {
      "id": 582,
      "content": "[02]:",
      "single_word": false,
      "lstrip": false,
      "rstrip": false,
      "normalized": false,
      "special": true
    },
    {
      "id": 583,
      "content": "[03]:",
      "single_word": false,
      "lstrip": false,
      "rstrip": false,
      "normalized": false,
      "special": true
    },
    {
      "id": 584,
      "content": "[04]:",
      "single_word": false,
      "lstrip": false,
      "rstrip": false,
      "normalized": false,
      "special": true
    },
    {
      "id": 585,
      "content": "[05]:",
      "single_word": false,
      "lstrip": false,
      "rstrip": false,
      "normalized": false,
      "special": true
    },
    {
      "id": 586,
      "content": "[06]:",
      "single_word": false,
      "lstrip": false,
      "rstrip": false,
      "normalized": false,
      "special": true
    },
    {
      "id": 587,
      "content": "[07]:",
      "single_word": false,
      "lstrip": false,
      "rstrip": false,
      "normalized": false,
      "special": true
    },
    {
      "id": 588,
      "content": "[08]:",
      "single_word": false,
      "lstrip": false,
      "rstrip": false,
      "normalized": false,
      "special": true
    },
    {
      "id": 589,
      "content": "[09]:",
      "single_word": false,
      "lstrip": false,
      "rstrip": false,
      "normalized": false,
      "special": true
    },
    {
      "id": 590,
      "content": "[10]:",
      "single_word": false,
      "lstrip": false,
      "rstrip": false,
      "normalized": false,
      "special": true
    },
    {
      "id": 591,
      "content": "[11]:",
      "single_word": false,
      "lstrip": false,
      "rstrip": false,
      "normalized": false,
      "special": true
    },
    {
      "id": 592,
      "content": "[12]:",
      "single_word": false,
      "lstrip": false,
      "rstrip": false,
      "normalized": false,
      "special": true
    },
    {
      "id": 593,
      "content": "[13]:",
      "single_word": false,
      "lstrip": false,
      "rstrip": false,
      "normalized": false,
      "special": true
    },
    {
      "id": 594,
      "content": "[14]:",
      "single_word": false,
      "lstrip": false,
      "rstrip": false,
      "normalized": false,
      "special": true
    },
    {
      "id": 595,
      "content": "[15]:",
      "single_word": false,
      "lstrip": false,
      "rstrip": false,
      "normalized": false,
      "special": true
    },
    {
      "id": 596,
      "content": "[16]:",
      "single_word": false,
      "lstrip": false,
      "rstrip": false,
      "normalized": false,
      "special": true
    },
    {
      "id": 597,
      "content": "[17]:",
      "single_word": false,
      "lstrip": false,
      "rstrip": false,
      "normalized": false,
      "special": true
    },
    {
      "id": 598,
      "content": "[18]:",
      "single_word": false,
      "lstrip": false,
      "rstrip": false,
      "normalized": false,
      "special": true
    },
    {
      "id": 599,
      "content": "[19]:",
      "single_word": false,
      "lstrip": false,
      "rstrip": false,
      "normalized": false,
      "special": true
    },
    {
      "id": 600,
      "content": "[20]:",
      "single_word": false,
      "lstrip": false,
      "rstrip": false,
      "normalized": false,
      "special": true
    },
    {
      "id": 601,
      "content": "[21]:",
      "single_word": false,
      "lstrip": false,
      "rstrip": false,
      "normalized": false,
      "special": true
    },
    {
      "id": 602,
      "content": "[22]:",
      "single_word": false,
      "lstrip": false,
      "rstrip": false,
      "normalized": false,
      "special": true
    },
    {
      "id": 603,
      "content": "[23]:",
      "single_word": false,
      "lstrip": false,
      "rstrip": false,
      "normalized": false,
      "special": true
    },
    {
      "id": 604,
      "content": ":[00]:",
      "single_word": false,
      "lstrip": false,
      "rstrip": false,
      "normalized": false,
      "special": true
    },
    {
      "id": 605,
      "content": ":[01]:",
      "single_word": false,
      "lstrip": false,
      "rstrip": false,
      "normalized": false,
      "special": true
    },
    {
      "id": 606,
      "content": ":[02]:",
      "single_word": false,
      "lstrip": false,
      "rstrip": false,
      "normalized": false,
      "special": true
    },
    {
      "id": 607,
      "content": ":[03]:",
      "single_word": false,
      "lstrip": false,
      "rstrip": false,
      "normalized": false,
      "special": true
    },
    {
      "id": 608,
      "content": ":[04]:",
      "single_word": false,
      "lstrip": false,
      "rstrip": false,
      "normalized": false,
      "special": true
    },
    {
      "id": 609,
      "content": ":[05]:",
      "single_word": false,
      "lstrip": false,
      "rstrip": false,
      "normalized": false,
      "special": true
    },
    {
      "id": 610,
      "content": ":[06]:",
      "single_word": false,
      "lstrip": false,
      "rstrip": false,
      "normalized": false,
      "special": true
    },
    {
      "id": 611,
      "content": ":[07]:",
      "single_word": false,
      "lstrip": false,
      "rstrip": false,
      "normalized": false,
      "special": true
    },
    {
      "id": 612,
      "content": ":[08]:",
      "single_word": false,
      "lstrip": false,
      "rstrip": false,
      "normalized": false,
      "special": true
    },
    {
      "id": 613,
      "content": ":[09]:",
      "single_word": false,
      "lstrip": false,
      "rstrip": false,
      "normalized": false,
      "special": true
    },
    {
      "id": 614,
      "content": ":[10]:",
      "single_word": false,
      "lstrip": false,
      "rstrip": false,
      "normalized": false,
      "special": true
    },
    {
      "id": 615,
      "content": ":[11]:",
      "single_word": false,
      "lstrip": false,
      "rstrip": false,
      "normalized": false,
      "special": true
    },
    {
      "id": 616,
      "content": ":[12]:",
      "single_word": false,
      "lstrip": false,
      "rstrip": false,
      "normalized": false,
      "special": true
    },
    {
      "id": 617,
      "content": ":[13]:",
      "single_word": false,
      "lstrip": false,
      "rstrip": false,
      "normalized": false,
      "special": true
    },
    {
      "id": 618,
      "content": ":[14]:",
      "single_word": false,
      "lstrip": false,
      "rstrip": false,
      "normalized": false,
      "special": true
    },
    {
      "id": 619,
      "content": ":[15]:",
      "single_word": false,
      "lstrip": false,
      "rstrip": false,
      "normalized": false,
      "special": true
    },
    {
      "id": 620,
      "content": ":[16]:",
      "single_word": false,
      "lstrip": false,
      "rstrip": false,
      "normalized": false,
      "special": true
    },
    {
      "id": 621,
      "content": ":[17]:",
      "single_word": false,
      "lstrip": false,
      "rstrip": false,
      "normalized": false,
      "special": true
    },
    {
      "id": 622,
      "content": ":[18]:",
      "single_word": false,
      "lstrip": false,
      "rstrip": false,
      "normalized": false,
      "special": true
    },
    {
      "id": 623,
      "content": ":[19]:",
      "single_word": false,
      "lstrip": false,
      "rstrip": false,
      "normalized": false,
      "special": true
    },
    {
      "id": 624,
      "content": ":[20]:",
      "single_word": false,
      "lstrip": false,
      "rstrip": false,
      "normalized": false,
      "special": true
    },
    {
      "id": 625,
      "content": ":[21]:",
      "single_word": false,
      "lstrip": false,
      "rstrip": false,
      "normalized": false,
      "special": true
    },
    {
      "id": 626,
      "content": ":[22]:",
      "single_word": false,
      "lstrip": false,
      "rstrip": false,
      "normalized": false,
      "special": true
    },
    {
      "id": 627,
      "content": ":[23]:",
      "single_word": false,
      "lstrip": false,
      "rstrip": false,
      "normalized": false,
      "special": true
    },
    {
      "id": 628,
      "content": ":[24]:",
      "single_word": false,
      "lstrip": false,
      "rstrip": false,
      "normalized": false,
      "special": true
    },
    {
      "id": 629,
      "content": ":[25]:",
      "single_word": false,
      "lstrip": false,
      "rstrip": false,
      "normalized": false,
      "special": true
    },
    {
      "id": 630,
      "content": ":[26]:",
      "single_word": false,
      "lstrip": false,
      "rstrip": false,
      "normalized": false,
      "special": true
    },
    {
      "id": 631,
      "content": ":[27]:",
      "single_word": false,
      "lstrip": false,
      "rstrip": false,
      "normalized": false,
      "special": true
    },
    {
      "id": 632,
      "content": ":[28]:",
      "single_word": false,
      "lstrip": false,
      "rstrip": false,
      "normalized": false,
      "special": true
    },
    {
      "id": 633,
      "content": ":[29]:",
      "single_word": false,
      "lstrip": false,
      "rstrip": false,
      "normalized": false,
      "special": true
    },
    {
      "id": 634,
      "content": ":[30]:",
      "single_word": false,
      "lstrip": false,
      "rstrip": false,
      "normalized": false,
      "special": true
    },
    {
      "id": 635,
      "content": ":[31]:",
      "single_word": false,
      "lstrip": false,
      "rstrip": false,
      "normalized": false,
      "special": true
    },
    {
      "id": 636,
      "content": ":[32]:",
      "single_word": false,
      "lstrip": false,
      "rstrip": false,
      "normalized": false,
      "special": true
    },
    {
      "id": 637,
      "content": ":[33]:",
      "single_word": false,
      "lstrip": false,
      "rstrip": false,
      "normalized": false,
      "special": true
    },
    {
      "id": 638,
      "content": ":[34]:",
      "single_word": false,
      "lstrip": false,
      "rstrip": false,
      "normalized": false,
      "special": true
    },
    {
      "id": 639,
      "content": ":[35]:",
      "single_word": false,
      "lstrip": false,
      "rstrip": false,
      "normalized": false,
      "special": true
    },
    {
      "id": 640,
      "content": ":[36]:",
      "single_word": false,
      "lstrip": false,
      "rstrip": false,
      "normalized": false,
      "special": true
    },
    {
      "id": 641,
      "content": ":[37]:",
      "single_word": false,
      "lstrip": false,
      "rstrip": false,
      "normalized": false,
      "special": true
    },
    {
      "id": 642,
      "content": ":[38]:",
      "single_word": false,
      "lstrip": false,
      "rstrip": false,
      "normalized": false,
      "special": true
    },
    {
      "id": 643,
      "content": ":[39]:",
      "single_word": false,
      "lstrip": false,
      "rstrip": false,
      "normalized": false,
      "special": true
    },
    {
      "id": 644,
      "content": ":[40]:",
      "single_word": false,
      "lstrip": false,
      "rstrip": false,
      "normalized": false,
      "special": true
    },
    {
      "id": 645,
      "content": ":[41]:",
      "single_word": false,
      "lstrip": false,
      "rstrip": false,
      "normalized": false,
      "special": true
    },
    {
      "id": 646,
      "content": ":[42]:",
      "single_word": false,
      "lstrip": false,
      "rstrip": false,
      "normalized": false,
      "special": true
    },
    {
      "id": 647,
      "content": ":[43]:",
      "single_word": false,
      "lstrip": false,
      "rstrip": false,
      "normalized": false,
      "special": true
    },
    {
      "id": 648,
      "content": ":[44]:",
      "single_word": false,
      "lstrip": false,
      "rstrip": false,
      "normalized": false,
      "special": true
    },
    {
      "id": 649,
      "content": ":[45]:",
      "single_word": false,
      "lstrip": false,
      "rstrip": false,
      "normalized": false,
      "special": true
    },
    {
      "id": 650,
      "content": ":[46]:",
      "single_word": false,
      "lstrip": false,
      "rstrip": false,
      "normalized": false,
      "special": true
    },
    {
      "id": 651,
      "content": ":[47]:",
      "single_word": false,
      "lstrip": false,
      "rstrip": false,
      "normalized": false,
      "special": true
    },
    {
      "id": 652,
      "content": ":[48]:",
      "single_word": false,
      "lstrip": false,
      "rstrip": false,
      "normalized": false,
      "special": true
    },
    {
      "id": 653,
      "content": ":[49]:",
      "single_word": false,
      "lstrip": false,
      "rstrip": false,
      "normalized": false,
      "special": true
    },
    {
      "id": 654,
      "content": ":[50]:",
      "single_word": false,
      "lstrip": false,
      "rstrip": false,
      "normalized": false,
      "special": true
    },
    {
      "id": 655,
      "content": ":[51]:",
      "single_word": false,
      "lstrip": false,
      "rstrip": false,
      "normalized": false,
      "special": true
    },
    {
      "id": 656,
      "content": ":[52]:",
      "single_word": false,
      "lstrip": false,
      "rstrip": false,
      "normalized": false,
      "special": true
    },
    {
      "id": 657,
      "content": ":[53]:",
      "single_word": false,
      "lstrip": false,
      "rstrip": false,
      "normalized": false,
      "special": true
    },
    {
      "id": 658,
      "content": ":[54]:",
      "single_word": false,
      "lstrip": false,
      "rstrip": false,
      "normalized": false,
      "special": true
    },
    {
      "id": 659,
      "content": ":[55]:",
      "single_word": false,
      "lstrip": false,
      "rstrip": false,
      "normalized": false,
      "special": true
    },
    {
      "id": 660,
      "content": ":[56]:",
      "single_word": false,
      "lstrip": false,
      "rstrip": false,
      "normalized": false,
      "special": true
    },
    {
      "id": 661,
      "content": ":[57]:",
      "single_word": false,
      "lstrip": false,
      "rstrip": false,
      "normalized": false,
      "special": true
    },
    {
      "id": 662,
      "content": ":[58]:",
      "single_word": false,
      "lstrip": false,
      "rstrip": false,
      "normalized": false,
      "special": true
    },
    {
      "id": 663,
      "content": ":[59]:",
      "single_word": false,
      "lstrip": false,
      "rstrip": false,
      "normalized": false,
      "special": true
    },
    {
      "id": 664,
      "content": ":[00]",
      "single_word": false,
      "lstrip": false,
      "rstrip": false,
      "normalized": false,
      "special": true
    },
    {
      "id": 665,
      "content": ":[01]",
      "single_word": false,
      "lstrip": false,
      "rstrip": false,
      "normalized": false,
      "special": true
    },
    {
      "id": 666,
      "content": ":[02]",
      "single_word": false,
      "lstrip": false,
      "rstrip": false,
      "normalized": false,
      "special": true
    },
    {
      "id": 667,
      "content": ":[03]",
      "single_word": false,
      "lstrip": false,
      "rstrip": false,
      "normalized": false,
      "special": true
    },
    {
      "id": 668,
      "content": ":[04]",
      "single_word": false,
      "lstrip": false,
      "rstrip": false,
      "normalized": false,
      "special": true
    },
    {
      "id": 669,
      "content": ":[05]",
      "single_word": false,
      "lstrip": false,
      "rstrip": false,
      "normalized": false,
      "special": true
    },
    {
      "id": 670,
      "content": ":[06]",
      "single_word": false,
      "lstrip": false,
      "rstrip": false,
      "normalized": false,
      "special": true
    },
    {
      "id": 671,
      "content": ":[07]",
      "single_word": false,
      "lstrip": false,
      "rstrip": false,
      "normalized": false,
      "special": true
    },
    {
      "id": 672,
      "content": ":[08]",
      "single_word": false,
      "lstrip": false,
      "rstrip": false,
      "normalized": false,
      "special": true
    },
    {
      "id": 673,
      "content": ":[09]",
      "single_word": false,
      "lstrip": false,
      "rstrip": false,
      "normalized": false,
      "special": true
    },
    {
      "id": 674,
      "content": ":[10]",
      "single_word": false,
      "lstrip": false,
      "rstrip": false,
      "normalized": false,
      "special": true
    },
    {
      "id": 675,
      "content": ":[11]",
      "single_word": false,
      "lstrip": false,
      "rstrip": false,
      "normalized": false,
      "special": true
    },
    {
      "id": 676,
      "content": ":[12]",
      "single_word": false,
      "lstrip": false,
      "rstrip": false,
      "normalized": false,
      "special": true
    },
    {
      "id": 677,
      "content": ":[13]",
      "single_word": false,
      "lstrip": false,
      "rstrip": false,
      "normalized": false,
      "special": true
    },
    {
      "id": 678,
      "content": ":[14]",
      "single_word": false,
      "lstrip": false,
      "rstrip": false,
      "normalized": false,
      "special": true
    },
    {
      "id": 679,
      "content": ":[15]",
      "single_word": false,
      "lstrip": false,
      "rstrip": false,
      "normalized": false,
      "special": true
    },
    {
      "id": 680,
      "content": ":[16]",
      "single_word": false,
      "lstrip": false,
      "rstrip": false,
      "normalized": false,
      "special": true
    },
    {
      "id": 681,
      "content": ":[17]",
      "single_word": false,
      "lstrip": false,
      "rstrip": false,
      "normalized": false,
      "special": true
    },
    {
      "id": 682,
      "content": ":[18]",
      "single_word": false,
      "lstrip": false,
      "rstrip": false,
      "normalized": false,
      "special": true
    },
    {
      "id": 683,
      "content": ":[19]",
      "single_word": false,
      "lstrip": false,
      "rstrip": false,
      "normalized": false,
      "special": true
    },
    {
      "id": 684,
      "content": ":[20]",
      "single_word": false,
      "lstrip": false,
      "rstrip": false,
      "normalized": false,
      "special": true
    },
    {
      "id": 685,
      "content": ":[21]",
      "single_word": false,
      "lstrip": false,
      "rstrip": false,
      "normalized": false,
      "special": true
    },
    {
      "id": 686,
      "content": ":[22]",
      "single_word": false,
      "lstrip": false,
      "rstrip": false,
      "normalized": false,
      "special": true
    },
    {
      "id": 687,
      "content": ":[23]",
      "single_word": false,
      "lstrip": false,
      "rstrip": false,
      "normalized": false,
      "special": true
    },
    {
      "id": 688,
      "content": ":[24]",
      "single_word": false,
      "lstrip": false,
      "rstrip": false,
      "normalized": false,
      "special": true
    },
    {
      "id": 689,
      "content": ":[25]",
      "single_word": false,
      "lstrip": false,
      "rstrip": false,
      "normalized": false,
      "special": true
    },
    {
      "id": 690,
      "content": ":[26]",
      "single_word": false,
      "lstrip": false,
      "rstrip": false,
      "normalized": false,
      "special": true
    },
    {
      "id": 691,
      "content": ":[27]",
      "single_word": false,
      "lstrip": false,
      "rstrip": false,
      "normalized": false,
      "special": true
    },
    {
      "id": 692,
      "content": ":[28]",
      "single_word": false,
      "lstrip": false,
      "rstrip": false,
      "normalized": false,
      "special": true
    },
    {
      "id": 693,
      "content": ":[29]",
      "single_word": false,
      "lstrip": false,
      "rstrip": false,
      "normalized": false,
      "special": true
    },
    {
      "id": 694,
      "content": ":[30]",
      "single_word": false,
      "lstrip": false,
      "rstrip": false,
      "normalized": false,
      "special": true
    },
    {
      "id": 695,
      "content": ":[31]",
      "single_word": false,
      "lstrip": false,
      "rstrip": false,
      "normalized": false,
      "special": true
    },
    {
      "id": 696,
      "content": ":[32]",
      "single_word": false,
      "lstrip": false,
      "rstrip": false,
      "normalized": false,
      "special": true
    },
    {
      "id": 697,
      "content": ":[33]",
      "single_word": false,
      "lstrip": false,
      "rstrip": false,
      "normalized": false,
      "special": true
    },
    {
      "id": 698,
      "content": ":[34]",
      "single_word": false,
      "lstrip": false,
      "rstrip": false,
      "normalized": false,
      "special": true
    },
    {
      "id": 699,
      "content": ":[35]",
      "single_word": false,
      "lstrip": false,
      "rstrip": false,
      "normalized": false,
      "special": true
    },
    {
      "id": 700,
      "content": ":[36]",
      "single_word": false,
      "lstrip": false,
      "rstrip": false,
      "normalized": false,
      "special": true
    },
    {
      "id": 701,
      "content": ":[37]",
      "single_word": false,
      "lstrip": false,
      "rstrip": false,
      "normalized": false,
      "special": true
    },
    {
      "id": 702,
      "content": ":[38]",
      "single_word": false,
      "lstrip": false,
      "rstrip": false,
      "normalized": false,
      "special": true
    },
    {
      "id": 703,
      "content": ":[39]",
      "single_word": false,
      "lstrip": false,
      "rstrip": false,
      "normalized": false,
      "special": true
    },
    {
      "id": 704,
      "content": ":[40]",
      "single_word": false,
      "lstrip": false,
      "rstrip": false,
      "normalized": false,
      "special": true
    },
    {
      "id": 705,
      "content": ":[41]",
      "single_word": false,
      "lstrip": false,
      "rstrip": false,
      "normalized": false,
      "special": true
    },
    {
      "id": 706,
      "content": ":[42]",
      "single_word": false,
      "lstrip": false,
      "rstrip": false,
      "normalized": false,
      "special": true
    },
    {
      "id": 707,
      "content": ":[43]",
      "single_word": false,
      "lstrip": false,
      "rstrip": false,
      "normalized": false,
      "special": true
    },
    {
      "id": 708,
      "content": ":[44]",
      "single_word": false,
      "lstrip": false,
      "rstrip": false,
      "normalized": false,
      "special": true
    },
    {
      "id": 709,
      "content": ":[45]",
      "single_word": false,
      "lstrip": false,
      "rstrip": false,
      "normalized": false,
      "special": true
    },
    {
      "id": 710,
      "content": ":[46]",
      "single_word": false,
      "lstrip": false,
      "rstrip": false,
      "normalized": false,
      "special": true
    },
    {
      "id": 711,
      "content": ":[47]",
      "single_word": false,
      "lstrip": false,
      "rstrip": false,
      "normalized": false,
      "special": true
    },
    {
      "id": 712,
      "content": ":[48]",
      "single_word": false,
      "lstrip": false,
      "rstrip": false,
      "normalized": false,
      "special": true
    },
    {
      "id": 713,
      "content": ":[49]",
      "single_word": false,
      "lstrip": false,
      "rstrip": false,
      "normalized": false,
      "special": true
    },
    {
      "id": 714,
      "content": ":[50]",
      "single_word": false,
      "lstrip": false,
      "rstrip": false,
      "normalized": false,
      "special": true
    },
    {
      "id": 715,
      "content": ":[51]",
      "single_word": false,
      "lstrip": false,
      "rstrip": false,
      "normalized": false,
      "special": true
    },
    {
      "id": 716,
      "content": ":[52]",
      "single_word": false,
      "lstrip": false,
      "rstrip": false,
      "normalized": false,
      "special": true
    },
    {
      "id": 717,
      "content": ":[53]",
      "single_word": false,
      "lstrip": false,
      "rstrip": false,
      "normalized": false,
      "special": true
    },
    {
      "id": 718,
      "content": ":[54]",
      "single_word": false,
      "lstrip": false,
      "rstrip": false,
      "normalized": false,
      "special": true
    },
    {
      "id": 719,
      "content": ":[55]",
      "single_word": false,
      "lstrip": false,
      "rstrip": false,
      "normalized": false,
      "special": true
    },
    {
      "id": 720,
      "content": ":[56]",
      "single_word": false,
      "lstrip": false,
      "rstrip": false,
      "normalized": false,
      "special": true
    },
    {
      "id": 721,
      "content": ":[57]",
      "single_word": false,
      "lstrip": false,
      "rstrip": false,
      "normalized": false,
      "special": true
    },
    {
      "id": 722,
      "content": ":[58]",
      "single_word": false,
      "lstrip": false,
      "rstrip": false,
      "normalized": false,
      "special": true
    },
    {
      "id": 723,
      "content": ":[59]",
      "single_word": false,
      "lstrip": false,
      "rstrip": false,
      "normalized": false,
      "special": true
    }
  ],
  "normalizer": {
    "type": "BertNormalizer",
    "clean_text": true,
    "handle_chinese_chars": true,
    "strip_accents": null,
    "lowercase": true
  },
  "pre_tokenizer": {
    "type": "BertPreTokenizer"
  },
  "post_processor": null,
  "decoder": {
    "type": "WordPiece",
    "prefix": "##",
    "cleanup": true
  },
  "model": {
    "type": "WordPiece",
    "unk_token": "[UNK]",
    "continuing_subword_prefix": "##",
    "max_input_chars_per_word": 100,
    "vocab": {
      "[PAD]": 0,
      "[UNK]": 1,
      "[SOS]": 2,
      "[EOS]": 3,
      "[S_0]": 4,
      "[S_1]": 5,
      "[S_2]": 6,
      "[S_3]": 7,
      "[S_4]": 8,
      "[S_5]": 9,
      "[S_6]": 10,
      "[S_7]": 11,
      "[S_8]": 12,
      "[S_9]": 13,
      "[S_10]": 14,
      "[S_11]": 15,
      "[S_12]": 16,
      "[S_13]": 17,
      "[S_14]": 18,
      "[S_15]": 19,
      "[S_16]": 20,
      "[S_17]": 21,
      "[S_18]": 22,
      "[S_19]": 23,
      "[S_20]": 24,
      "[S_21]": 25,
      "[S_22]": 26,
      "[S_23]": 27,
      "[S_24]": 28,
      "[S_25]": 29,
      "[S_26]": 30,
      "[S_27]": 31,
      "[S_28]": 32,
      "[S_29]": 33,
      "[S_30]": 34,
      "[S_31]": 35,
      "[S_32]": 36,
      "[S_33]": 37,
      "[S_34]": 38,
      "[S_35]": 39,
      "[S_36]": 40,
      "[S_37]": 41,
      "[S_38]": 42,
      "[S_39]": 43,
      "[S_40]": 44,
      "[S_41]": 45,
      "[S_42]": 46,
      "[S_43]": 47,
      "[S_44]": 48,
      "[S_45]": 49,
      "[S_46]": 50,
      "[S_47]": 51,
      "[S_48]": 52,
      "[S_49]": 53,
      "[S_50]": 54,
      "[S_51]": 55,
      "[S_52]": 56,
      "[S_53]": 57,
      "[S_54]": 58,
      "[S_55]": 59,
      "[S_56]": 60,
      "[S_57]": 61,
      "[S_58]": 62,
      "[S_59]": 63,
      "[S_60]": 64,
      "[S_61]": 65,
      "[S_62]": 66,
      "[S_63]": 67,
      "[S_64]": 68,
      "[S_65]": 69,
      "[S_66]": 70,
      "[S_67]": 71,
      "[S_68]": 72,
      "[S_69]": 73,
      "[S_70]": 74,
      "[S_71]": 75,
      "[S_72]": 76,
      "[S_73]": 77,
      "[S_74]": 78,
      "[S_75]": 79,
      "[S_76]": 80,
      "[S_77]": 81,
      "[S_78]": 82,
      "[S_79]": 83,
      "[S_80]": 84,
      "[S_81]": 85,
      "[S_82]": 86,
      "[S_83]": 87,
      "[S_84]": 88,
      "[S_85]": 89,
      "[S_86]": 90,
      "[S_87]": 91,
      "[S_88]": 92,
      "[S_89]": 93,
      "[S_90]": 94,
      "[S_91]": 95,
      "[S_92]": 96,
      "[S_93]": 97,
      "[S_94]": 98,
      "[S_95]": 99,
      "[S_96]": 100,
      "[S_97]": 101,
      "[S_98]": 102,
      "[S_99]": 103,
      "[S_100]": 104,
      "[S_101]": 105,
      "[S_102]": 106,
      "[S_103]": 107,
      "[S_104]": 108,
      "[S_105]": 109,
      "[S_106]": 110,
      "[S_107]": 111,
      "[S_108]": 112,
      "[S_109]": 113,
      "[S_110]": 114,
      "[S_111]": 115,
      "[S_112]": 116,
      "[S_113]": 117,
      "[S_114]": 118,
      "[S_115]": 119,
      "[S_116]": 120,
      "[S_117]": 121,
      "[S_118]": 122,
      "[S_119]": 123,
      "[S_120]": 124,
      "[S_121]": 125,
      "[S_122]": 126,
      "[S_123]": 127,
      "[S_124]": 128,
      "[S_125]": 129,
      "[S_126]": 130,
      "[S_127]": 131,
      "[S_128]": 132,
      "[S_129]": 133,
      "[S_130]": 134,
      "[S_131]": 135,
      "[S_132]": 136,
      "[S_133]": 137,
      "[S_134]": 138,
      "[S_135]": 139,
      "[S_136]": 140,
      "[S_137]": 141,
      "[S_138]": 142,
      "[S_139]": 143,
      "[S_140]": 144,
      "[S_141]": 145,
      "[S_142]": 146,
      "[S_143]": 147,
      "[S_144]": 148,
      "[S_145]": 149,
      "[S_146]": 150,
      "[S_147]": 151,
      "[S_148]": 152,
      "[S_149]": 153,
      "[S_150]": 154,
      "[S_151]": 155,
      "[S_152]": 156,
      "[S_153]": 157,
      "[S_154]": 158,
      "[S_155]": 159,
      "[S_156]": 160,
      "[S_157]": 161,
      "[S_158]": 162,
      "[S_159]": 163,
      "[S_160]": 164,
      "[S_161]": 165,
      "[S_162]": 166,
      "[S_163]": 167,
      "[S_164]": 168,
      "[S_165]": 169,
      "[S_166]": 170,
      "[S_167]": 171,
      "[S_168]": 172,
      "[S_169]": 173,
      "[S_170]": 174,
      "[S_171]": 175,
      "[S_172]": 176,
      "[S_173]": 177,
      "[S_174]": 178,
      "[S_175]": 179,
      "[S_176]": 180,
      "[S_177]": 181,
      "[S_178]": 182,
      "[S_179]": 183,
      "[S_180]": 184,
      "[S_181]": 185,
      "[S_182]": 186,
      "[S_183]": 187,
      "[S_184]": 188,
      "[S_185]": 189,
      "[S_186]": 190,
      "[S_187]": 191,
      "[S_188]": 192,
      "[S_189]": 193,
      "[S_190]": 194,
      "[S_191]": 195,
      "[S_192]": 196,
      "[S_193]": 197,
      "[S_194]": 198,
      "[S_195]": 199,
      "[S_196]": 200,
      "[S_197]": 201,
      "[S_198]": 202,
      "[S_199]": 203,
      "v0=0": 204,
      "v0=1": 205,
      "v0=2": 206,
      "v0=3": 207,
      "v0=4": 208,
      "v0=5": 209,
      "v0=6": 210,
      "v0=7": 211,
      "v0=8": 212,
      "v0=9": 213,
      "v0=10": 214,
      "v0=11": 215,
      "v0=12": 216,
      "v0=13": 217,
      "v0=14": 218,
      "v0=15": 219,
      "v0=16": 220,
      "v0=17": 221,
      "v0=18": 222,
      "v0=19": 223,
      "v0=20": 224,
      "v1=": 225,
      "[00]": 226,
      "[01]": 227,
      "[02]": 228,
      "[03]": 229,
      "[04]": 230,
      "[05]": 231,
      "[06]": 232,
      "[07]": 233,
      "[08]": 234,
      "[09]": 235,
      "[0A]": 236,
      "[0B]": 237,
      "[0D]": 238,
      "[0C]": 239,
      "[0E]": 240,
      "[0F]": 241,
      "[10]": 242,
      "[11]": 243,
      "[12]": 244,
      "[13]": 245,
      "[14]": 246,
      "[15]": 247,
      "[16]": 248,
      "[17]": 249,
      "[18]": 250,
      "[19]": 251,
      "[1A]": 252,
      "[1B]": 253,
      "[1D]": 254,
      "[1C]": 255,
      "[1E]": 256,
      "[1F]": 257,
      "[20]": 258,
      "[21]": 259,
      "[22]": 260,
      "[23]": 261,
      "[24]": 262,
      "[25]": 263,
      "[26]": 264,
      "[27]": 265,
      "[28]": 266,
      "[29]": 267,
      "[2A]": 268,
      "[2B]": 269,
      "[2D]": 270,
      "[2C]": 271,
      "[2E]": 272,
      "[2F]": 273,
      "[30]": 274,
      "[31]": 275,
      "[32]": 276,
      "[33]": 277,
      "[34]": 278,
      "[35]": 279,
      "[36]": 280,
      "[37]": 281,
      "[38]": 282,
      "[39]": 283,
      "[3A]": 284,
      "[3B]": 285,
      "[3D]": 286,
      "[3C]": 287,
      "[3E]": 288,
      "[3F]": 289,
      "[40]": 290,
      "[41]": 291,
      "[42]": 292,
      "[43]": 293,
      "[44]": 294,
      "[45]": 295,
      "[46]": 296,
      "[47]": 297,
      "[48]": 298,
      "[49]": 299,
      "[4A]": 300,
      "[4B]": 301,
      "[4D]": 302,
      "[4C]": 303,
      "[4E]": 304,
      "[4F]": 305,
      "[50]": 306,
      "[51]": 307,
      "[52]": 308,
      "[53]": 309,
      "[54]": 310,
      "[55]": 311,
      "[56]": 312,
      "[57]": 313,
      "[58]": 314,
      "[59]": 315,
      "[5A]": 316,
      "[5B]": 317,
      "[5D]": 318,
      "[5C]": 319,
      "[5E]": 320,
      "[5F]": 321,
      "[60]": 322,
      "[61]": 323,
      "[62]": 324,
      "[63]": 325,
      "[64]": 326,
      "[65]": 327,
      "[66]": 328,
      "[67]": 329,
      "[68]": 330,
      "[69]": 331,
      "[6A]": 332,
      "[6B]": 333,
      "[6D]": 334,
      "[6C]": 335,
      "[6E]": 336,
      "[6F]": 337,
      "[70]": 338,
      "[71]": 339,
      "[72]": 340,
      "[73]": 341,
      "[74]": 342,
      "[75]": 343,
      "[76]": 344,
      "[77]": 345,
      "[78]": 346,
      "[79]": 347,
      "[7A]": 348,
      "[7B]": 349,
      "[7D]": 350,
      "[7C]": 351,
      "[7E]": 352,
      "[7F]": 353,
      "[80]": 354,
      "[81]": 355,
      "[82]": 356,
      "[83]": 357,
      "[84]": 358,
      "[85]": 359,
      "[86]": 360,
      "[87]": 361,
      "[88]": 362,
      "[89]": 363,
      "[8A]": 364,
      "[8B]": 365,
      "[8D]": 366,
      "[8C]": 367,
      "[8E]": 368,
      "[8F]": 369,
      "[90]": 370,
      "[91]": 371,
      "[92]": 372,
      "[93]": 373,
      "[94]": 374,
      "[95]": 375,
      "[96]": 376,
      "[97]": 377,
      "[98]": 378,
      "[99]": 379,
      "[9A]": 380,
      "[9B]": 381,
      "[9D]": 382,
      "[9C]": 383,
      "[9E]": 384,
      "[9F]": 385,
      "[A0]": 386,
      "[A1]": 387,
      "[A2]": 388,
      "[A3]": 389,
      "[A4]": 390,
      "[A5]": 391,
      "[A6]": 392,
      "[A7]": 393,
      "[A8]": 394,
      "[A9]": 395,
      "[AA]": 396,
      "[AB]": 397,
      "[AD]": 398,
      "[AC]": 399,
      "[AE]": 400,
      "[AF]": 401,
      "[B0]": 402,
      "[B1]": 403,
      "[B2]": 404,
      "[B3]": 405,
      "[B4]": 406,
      "[B5]": 407,
      "[B6]": 408,
      "[B7]": 409,
      "[B8]": 410,
      "[B9]": 411,
      "[BA]": 412,
      "[BB]": 413,
      "[BD]": 414,
      "[BC]": 415,
      "[BE]": 416,
      "[BF]": 417,
      "[D0]": 418,
      "[D1]": 419,
      "[D2]": 420,
      "[D3]": 421,
      "[D4]": 422,
      "[D5]": 423,
      "[D6]": 424,
      "[D7]": 425,
      "[D8]": 426,
      "[D9]": 427,
      "[DA]": 428,
      "[DB]": 429,
      "[DD]": 430,
      "[DC]": 431,
      "[DE]": 432,
      "[DF]": 433,
      "[C0]": 434,
      "[C1]": 435,
      "[C2]": 436,
      "[C3]": 437,
      "[C4]": 438,
      "[C5]": 439,
      "[C6]": 440,
      "[C7]": 441,
      "[C8]": 442,
      "[C9]": 443,
      "[CA]": 444,
      "[CB]": 445,
      "[CD]": 446,
      "[CC]": 447,
      "[CE]": 448,
      "[CF]": 449,
      "[E0]": 450,
      "[E1]": 451,
      "[E2]": 452,
      "[E3]": 453,
      "[E4]": 454,
      "[E5]": 455,
      "[E6]": 456,
      "[E7]": 457,
      "[E8]": 458,
      "[E9]": 459,
      "[EA]": 460,
      "[EB]": 461,
      "[ED]": 462,
      "[EC]": 463,
      "[EE]": 464,
      "[EF]": 465,
      "[F0]": 466,
      "[F1]": 467,
      "[F2]": 468,
      "[F3]": 469,
      "[F4]": 470,
      "[F5]": 471,
      "[F6]": 472,
      "[F7]": 473,
      "[F8]": 474,
      "[F9]": 475,
      "[FA]": 476,
      "[FB]": 477,
      "[FD]": 478,
      "[FC]": 479,
      "[FE]": 480,
      "[FF]": 481,
      "[1970]-": 482,
      "[1971]-": 483,
      "[1972]-": 484,
      "[1973]-": 485,
      "[1974]-": 486,
      "[1975]-": 487,
      "[1976]-": 488,
      "[1977]-": 489,
      "[1978]-": 490,
      "[1979]-": 491,
      "[1980]-": 492,
      "[1981]-": 493,
      "[1982]-": 494,
      "[1983]-": 495,
      "[1984]-": 496,
      "[1985]-": 497,
      "[1986]-": 498,
      "[1987]-": 499,
      "[1988]-": 500,
      "[1989]-": 501,
      "[1990]-": 502,
      "[1991]-": 503,
      "[1992]-": 504,
      "[1993]-": 505,
      "[1994]-": 506,
      "[1995]-": 507,
      "[1996]-": 508,
      "[1997]-": 509,
      "[1998]-": 510,
      "[1999]-": 511,
      "[2000]-": 512,
      "[2001]-": 513,
      "[2002]-": 514,
      "[2003]-": 515,
      "[2004]-": 516,
      "[2005]-": 517,
      "[2006]-": 518,
      "[2007]-": 519,
      "[2008]-": 520,
      "[2009]-": 521,
      "[2010]-": 522,
      "[2011]-": 523,
      "[2012]-": 524,
      "[2013]-": 525,
      "[2014]-": 526,
      "[2015]-": 527,
      "[2016]-": 528,
      "[2017]-": 529,
      "[2018]-": 530,
      "[2019]-": 531,
      "[2020]-": 532,
      "[2021]-": 533,
      "[2022]-": 534,
      "[2023]-": 535,
      "[2024]-": 536,
      "-[01]-": 537,
      "-[02]-": 538,
      "-[03]-": 539,
      "-[04]-": 540,
      "-[05]-": 541,
      "-[06]-": 542,
      "-[07]-": 543,
      "-[08]-": 544,
      "-[09]-": 545,
      "-[10]-": 546,
      "-[11]-": 547,
      "-[12]-": 548,
      "-[01]": 549,
      "-[02]": 550,
      "-[03]": 551,
      "-[04]": 552,
      "-[05]": 553,
      "-[06]": 554,
      "-[07]": 555,
      "-[08]": 556,
      "-[09]": 557,
      "-[10]": 558,
      "-[11]": 559,
      "-[12]": 560,
      "-[13]": 561,
      "-[14]": 562,
      "-[15]": 563,
      "-[16]": 564,
      "-[17]": 565,
      "-[18]": 566,
      "-[19]": 567,
      "-[20]": 568,
      "-[21]": 569,
      "-[22]": 570,
      "-[23]": 571,
      "-[24]": 572,
      "-[25]": 573,
      "-[26]": 574,
      "-[27]": 575,
      "-[28]": 576,
      "-[29]": 577,
      "-[30]": 578,
      "-[31]": 579,
      "[00]:": 580,
      "[01]:": 581,
      "[02]:": 582,
      "[03]:": 583,
      "[04]:": 584,
      "[05]:": 585,
      "[06]:": 586,
      "[07]:": 587,
      "[08]:": 588,
      "[09]:": 589,
      "[10]:": 590,
      "[11]:": 591,
      "[12]:": 592,
      "[13]:": 593,
      "[14]:": 594,
      "[15]:": 595,
      "[16]:": 596,
      "[17]:": 597,
      "[18]:": 598,
      "[19]:": 599,
      "[20]:": 600,
      "[21]:": 601,
      "[22]:": 602,
      "[23]:": 603,
      ":[00]:": 604,
      ":[01]:": 605,
      ":[02]:": 606,
      ":[03]:": 607,
      ":[04]:": 608,
      ":[05]:": 609,
      ":[06]:": 610,
      ":[07]:": 611,
      ":[08]:": 612,
      ":[09]:": 613,
      ":[10]:": 614,
      ":[11]:": 615,
      ":[12]:": 616,
      ":[13]:": 617,
      ":[14]:": 618,
      ":[15]:": 619,
      ":[16]:": 620,
      ":[17]:": 621,
      ":[18]:": 622,
      ":[19]:": 623,
      ":[20]:": 624,
      ":[21]:": 625,
      ":[22]:": 626,
      ":[23]:": 627,
      ":[24]:": 628,
      ":[25]:": 629,
      ":[26]:": 630,
      ":[27]:": 631,
      ":[28]:": 632,
      ":[29]:": 633,
      ":[30]:": 634,
      ":[31]:": 635,
      ":[32]:": 636,
      ":[33]:": 637,
      ":[34]:": 638,
      ":[35]:": 639,
      ":[36]:": 640,
      ":[37]:": 641,
      ":[38]:": 642,
      ":[39]:": 643,
      ":[40]:": 644,
      ":[41]:": 645,
      ":[42]:": 646,
      ":[43]:": 647,
      ":[44]:": 648,
      ":[45]:": 649,
      ":[46]:": 650,
      ":[47]:": 651,
      ":[48]:": 652,
      ":[49]:": 653,
      ":[50]:": 654,
      ":[51]:": 655,
      ":[52]:": 656,
      ":[53]:": 657,
      ":[54]:": 658,
      ":[55]:": 659,
      ":[56]:": 660,
      ":[57]:": 661,
      ":[58]:": 662,
      ":[59]:": 663,
      ":[00]": 664,
      ":[01]": 665,
      ":[02]": 666,
      ":[03]": 667,
      ":[04]": 668,
      ":[05]": 669,
      ":[06]": 670,
      ":[07]": 671,
      ":[08]": 672,
      ":[09]": 673,
      ":[10]": 674,
      ":[11]": 675,
      ":[12]": 676,
      ":[13]": 677,
      ":[14]": 678,
      ":[15]": 679,
      ":[16]": 680,
      ":[17]": 681,
      ":[18]": 682,
      ":[19]": 683,
      ":[20]": 684,
      ":[21]": 685,
      ":[22]": 686,
      ":[23]": 687,
      ":[24]": 688,
      ":[25]": 689,
      ":[26]": 690,
      ":[27]": 691,
      ":[28]": 692,
      ":[29]": 693,
      ":[30]": 694,
      ":[31]": 695,
      ":[32]": 696,
      ":[33]": 697,
      ":[34]": 698,
      ":[35]": 699,
      ":[36]": 700,
      ":[37]": 701,
      ":[38]": 702,
      ":[39]": 703,
      ":[40]": 704,
      ":[41]": 705,
      ":[42]": 706,
      ":[43]": 707,
      ":[44]": 708,
      ":[45]": 709,
      ":[46]": 710,
      ":[47]": 711,
      ":[48]": 712,
      ":[49]": 713,
      ":[50]": 714,
      ":[51]": 715,
      ":[52]": 716,
      ":[53]": 717,
      ":[54]": 718,
      ":[55]": 719,
      ":[56]": 720,
      ":[57]": 721,
      ":[58]": 722,
      ":[59]": 723,
      "!": 724,
      "\"": 725,
      "#": 726,
      "$": 727,
      "%": 728,
      "&": 729,
      "'": 730,
      "(": 731,
      ")": 732,
      "+": 733,
      ",": 734,
      "-": 735,
      ".": 736,
      "/": 737,
      "0": 738,
      "1": 739,
      "2": 740,
      "3": 741,
      "4": 742,
      "5": 743,
      "6": 744,
      "7": 745,
      "8": 746,
      "9": 747,
      ":": 748,
      ";": 749,
      "<": 750,
      "=": 751,
      ">": 752,
      "?": 753,
      "[": 754,
      "\\": 755,
      "]": 756,
      "^": 757,
      "_": 758,
      "`": 759,
      "a": 760,
      "b": 761,
      "c": 762,
      "d": 763,
      "e": 764,
      "f": 765,
      "g": 766,
      "h": 767,
      "i": 768,
      "j": 769,
      "k": 770,
      "l": 771,
      "m": 772,
      "n": 773,
      "o": 774,
      "p": 775,
      "q": 776,
      "r": 777,
      "s": 778,
      "t": 779,
      "u": 780,
      "v": 781,
      "w": 782,
      "x": 783,
      "y": 784,
      "z": 785,
      "{": 786,
      "|": 787,
      "}": 788,
      "~": 789,
      "¬": 790,
      "°": 791,
      "²": 792,
      "·": 793,
      "¹": 794,
      "¿": 795,
      "ß": 796,
      "æ": 797,
      "ø": 798,
      "đ": 799,
      "ı": 800,
      "ł": 801,
      "а": 802,
      "б": 803,
      "в": 804,
      "г": 805,
      "д": 806,
      "е": 807,
      "ж": 808,
      "з": 809,
      "и": 810,
      "к": 811,
      "л": 812,
      "м": 813,
      "н": 814,
      "о": 815,
      "п": 816,
      "р": 817,
      "с": 818,
      "т": 819,
      "у": 820,
      "ф": 821,
      "х": 822,
      "ц": 823,
      "ч": 824,
      "щ": 825,
      "ы": 826,
      "ь": 827,
      "ю": 828,
      "я": 829,
      "є": 830,
      "א": 831,
      "ב": 832,
      "ג": 833,
      "ד": 834,
      "ח": 835,
      "ט": 836,
      "כ": 837,
      "ל": 838,
      "מ": 839,
      "נ": 840,
      "פ": 841,
      "ק": 842,
      "ר": 843,
      "ש": 844,
      "ת": 845,
      "،": 846,
      "ء": 847,
      "ا": 848,
      "ب": 849,
      "ة": 850,
      "ت": 851,
      "ث": 852,
      "ج": 853,
      "ح": 854,
      "خ": 855,
      "د": 856,
      "ذ": 857,
      "ر": 858,
      "ز": 859,
      "س": 860,
      "ش": 861,
      "ص": 862,
      "ض": 863,
      "ط": 864,
      "ظ": 865,
      "ع": 866,
      "غ": 867,
      "ف": 868,
      "ق": 869,
      "ك": 870,
      "ل": 871,
      "م": 872,
      "ن": 873,
      "ه": 874,
      "و": 875,
      "ى": 876,
      "ي": 877,
      "ก": 878,
      "ข": 879,
      "ค": 880,
      "ง": 881,
      "จ": 882,
      "ฉ": 883,
      "ช": 884,
      "ญ": 885,
      "ณ": 886,
      "ด": 887,
      "ถ": 888,
      "ท": 889,
      "น": 890,
      "บ": 891,
      "ป": 892,
      "พ": 893,
      "ม": 894,
      "ย": 895,
      "ร": 896,
      "ล": 897,
      "ว": 898,
      "ส": 899,
      "ห": 900,
      "อ": 901,
      "ะ": 902,
      "า": 903,
      "ำ": 904,
      "เ": 905,
      "แ": 906,
      "โ": 907,
      "ใ": 908,
      "ไ": 909,
      "ᄋ": 910,
      "ᄏ": 911,
      "ᅬ": 912,
      "ᅳ": 913,
      "ᆫ": 914,
      "–": 915,
      "—": 916,
      "’": 917,
      "“": 918,
      "”": 919,
      "•": 920,
      "…": 921,
      "₂": 922,
      "™": 923,
      "√": 924,
      "①": 925,
      "②": 926,
      "③": 927,
      "④": 928,
      "⑤": 929,
      "⑥": 930,
      "─": 931,
      "═": 932,
      "□": 933,
      "●": 934,
      "、": 935,
      "。": 936,
      "々": 937,
      "あ": 938,
      "い": 939,
      "う": 940,
      "え": 941,
      "か": 942,
      "き": 943,
      "く": 944,
      "け": 945,
      "こ": 946,
      "さ": 947,
      "し": 948,
      "す": 949,
      "そ": 950,
      "た": 951,
      "ち": 952,
      "っ": 953,
      "つ": 954,
      "て": 955,
      "と": 956,
      "な": 957,
      "に": 958,
      "の": 959,
      "は": 960,
      "ま": 961,
      "め": 962,
      "や": 963,
      "ら": 964,
      "り": 965,
      "る": 966,
      "れ": 967,
      "ろ": 968,
      "を": 969,
      "ん": 970,
      "エ": 971,
      "キ": 972,
      "ネ": 973,
      "ル": 974,
      "・": 975,
      "ー": 976,
      "一": 977,
      "上": 978,
      "下": 979,
      "不": 980,
      "与": 981,
      "世": 982,
      "东": 983,
      "丢": 984,
      "个": 985,
      "中": 986,
      "为": 987,
      "义": 988,
      "之": 989,
      "乱": 990,
      "了": 991,
      "事": 992,
      "于": 993,
      "交": 994,
      "人": 995,
      "从": 996,
      "他": 997,
      "代": 998,
      "以": 999,
      "们": 1000,
      "件": 1001,
      "任": 1002,
      "会": 1003,
      "但": 1004,
      "位": 1005,
      "低": 1006,
      "体": 1007,
      "何": 1008,
      "余": 1009,
      "作": 1010,
      "例": 1011,
      "供": 1012,
      "便": 1013,
      "信": 1014,
      "做": 1015,
      "像": 1016,
      "公": 1017,
      "关": 1018,
      "其": 1019,
      "具": 1020,
      "农": 1021,
      "冷": 1022,
      "准": 1023,
      "出": 1024,
      "到": 1025,
      "制": 1026,
      "刺": 1027,
      "前": 1028,
      "剩": 1029,
      "力": 1030,
      "加": 1031,
      "动": 1032,
      "助": 1033,
      "励": 1034,
      "動": 1035,
      "包": 1036,
      "化": 1037,
      "区": 1038,
      "卡": 1039,
      "原": 1040,
      "去": 1041,
      "县": 1042,
      "及": 1043,
      "发": 1044,
      "口": 1045,
      "古": 1046,
      "另": 1047,
      "叫": 1048,
      "可": 1049,
      "叶": 1050,
      "叹": 1051,
      "合": 1052,
      "名": 1053,
      "向": 1054,
      "听": 1055,
      "告": 1056,
      "周": 1057,
      "味": 1058,
      "和": 1059,
      "咲": 1060,
      "品": 1061,
      "喃": 1062,
      "因": 1063,
      "困": 1064,
      "土": 1065,
      "在": 1066,
      "地": 1067,
      "场": 1068,
      "坏": 1069,
      "型": 1070,
      "城": 1071,
      "域": 1072,
      "場": 1073,
      "墟": 1074,
      "声": 1075,
      "备": 1076,
      "夕": 1077,
      "多": 1078,
      "大": 1079,
      "央": 1080,
      "失": 1081,
      "头": 1082,
      "夹": 1083,
      "奇": 1084,
      "奖": 1085,
      "好": 1086,
      "如": 1087,
      "存": 1088,
      "宗": 1089,
      "定": 1090,
      "実": 1091,
      "家": 1092,
      "密": 1093,
      "寒": 1094,
      "对": 1095,
      "寻": 1096,
      "导": 1097,
      "導": 1098,
      "小": 1099,
      "少": 1100,
      "山": 1101,
      "岩": 1102,
      "嵌": 1103,
      "州": 1104,
      "巢": 1105,
      "工": 1106,
      "已": 1107,
      "市": 1108,
      "帐": 1109,
      "带": 1110,
      "帮": 1111,
      "帽": 1112,
      "平": 1113,
      "度": 1114,
      "座": 1115,
      "廃": 1116,
      "建": 1117,
      "开": 1118,
      "引": 1119,
      "当": 1120,
      "形": 1121,
      "征": 1122,
      "很": 1123,
      "徴": 1124,
      "心": 1125,
      "必": 1126,
      "态": 1127,
      "急": 1128,
      "性": 1129,
      "怪": 1130,
      "息": 1131,
      "意": 1132,
      "感": 1133,
      "懐": 1134,
      "懒": 1135,
      "我": 1136,
      "或": 1137,
      "所": 1138,
      "手": 1139,
      "找": 1140,
      "抽": 1141,
      "括": 1142,
      "持": 1143,
      "指": 1144,
      "损": 1145,
      "据": 1146,
      "捲": 1147,
      "掉": 1148,
      "排": 1149,
      "探": 1150,
      "接": 1151,
      "推": 1152,
      "提": 1153,
      "搜": 1154,
      "搞": 1155,
      "搭": 1156,
      "操": 1157,
      "断": 1158,
      "新": 1159,
      "方": 1160,
      "旁": 1161,
      "旅": 1162,
      "时": 1163,
      "明": 1164,
      "是": 1165,
      "显": 1166,
      "景": 1167,
      "智": 1168,
      "暖": 1169,
      "暮": 1170,
      "最": 1171,
      "有": 1172,
      "朗": 1173,
      "木": 1174,
      "朵": 1175,
      "机": 1176,
      "村": 1177,
      "東": 1178,
      "林": 1179,
      "果": 1180,
      "某": 1181,
      "查": 1182,
      "柴": 1183,
      "树": 1184,
      "根": 1185,
      "案": 1186,
      "森": 1187,
      "植": 1188,
      "様": 1189,
      "次": 1190,
      "此": 1191,
      "歩": 1192,
      "残": 1193,
      "民": 1194,
      "气": 1195,
      "水": 1196,
      "沙": 1197,
      "没": 1198,
      "河": 1199,
      "油": 1200,
      "沿": 1201,
      "泉": 1202,
      "注": 1203,
      "活": 1204,
      "温": 1205,
      "漠": 1206,
      "炊": 1207,
      "点": 1208,
      "烧": 1209,
      "物": 1210,
      "特": 1211,
      "状": 1212,
      "现": 1213,
      "珍": 1214,
      "珠": 1215,
      "理": 1216,
      "環": 1217,
      "甜": 1218,
      "生": 1219,
      "用": 1220,
      "田": 1221,
      "画": 1222,
      "界": 1223,
      "番": 1224,
      "當": 1225,
      "痕": 1226,
      "発": 1227,
      "登": 1228,
      "白": 1229,
      "的": 1230,
      "皮": 1231,
      "盖": 1232,
      "盘": 1233,
      "直": 1234,
      "相": 1235,
      "看": 1236,
      "着": 1237,
      "石": 1238,
      "码": 1239,
      "示": 1240,
      "离": 1241,
      "种": 1242,
      "移": 1243,
      "端": 1244,
      "答": 1245,
      "篷": 1246,
      "类": 1247,
      "索": 1248,
      "線": 1249,
      "繁": 1250,
      "红": 1251,
      "线": 1252,
      "经": 1253,
      "编": 1254,
      "缘": 1255,
      "网": 1256,
      "置": 1257,
      "群": 1258,
      "者": 1259,
      "肉": 1260,
      "能": 1261,
      "自": 1262,
      "航": 1263,
      "色": 1264,
      "芭": 1265,
      "花": 1266,
      "茂": 1267,
      "草": 1268,
      "荒": 1269,
      "药": 1270,
      "落": 1271,
      "著": 1272,
      "蓝": 1273,
      "蜂": 1274,
      "蜜": 1275,
      "行": 1276,
      "街": 1277,
      "袋": 1278,
      "被": 1279,
      "西": 1280,
      "要": 1281,
      "見": 1282,
      "觉": 1283,
      "解": 1284,
      "触": 1285,
      "訪": 1286,
      "謎": 1287,
      "记": 1288,
      "许": 1289,
      "诉": 1290,
      "该": 1291,
      "说": 1292,
      "请": 1293,
      "象": 1294,
      "質": 1295,
      "赤": 1296,
      "起": 1297,
      "足": 1298,
      "距": 1299,
      "跡": 1300,
      "路": 1301,
      "车": 1302,
      "较": 1303,
      "辆": 1304,
      "边": 1305,
      "辺": 1306,
      "过": 1307,
      "近": 1308,
      "这": 1309,
      "远": 1310,
      "迷": 1311,
      "迹": 1312,
      "送": 1313,
      "通": 1314,
      "道": 1315,
      "部": 1316,
      "采": 1317,
      "里": 1318,
      "野": 1319,
      "量": 1320,
      "针": 1321,
      "長": 1322,
      "间": 1323,
      "闻": 1324,
      "附": 1325,
      "陰": 1326,
      "随": 1327,
      "隠": 1328,
      "难": 1329,
      "集": 1330,
      "雕": 1331,
      "離": 1332,
      "難": 1333,
      "雨": 1334,
      "零": 1335,
      "需": 1336,
      "震": 1337,
      "青": 1338,
      "鞋": 1339,
      "音": 1340,
      "頻": 1341,
      "風": 1342,
      "风": 1343,
      "鲜": 1344,
      "鸟": 1345,
      "鸣": 1346,
      "（": 1347,
      "）": 1348,
      "，": 1349,
      "：": 1350,
      "🐦": 1351,
      "##m": 1352,
      "##a": 1353,
      "##b": 1354,
      "##i": 1355,
      "##t": 1356,
      "##s": 1357,
      "##w": 1358,
      "##o": 1359,
      "##u": 1360,
      "##l": 1361,
      "##d": 1362,
      "##e": 1363,
      "##g": 1364,
      "##n": 1365,
      "##r": 1366,
      "##h": 1367,
      "##c": 1368,
      "##v": 1369,
      "##p": 1370,
      "##q": 1371,
      "##0": 1372,
      "##y": 1373,
      "##k": 1374,
      "##f": 1375,
      "##z": 1376,
      "##9": 1377,
      "##7": 1378,
      "##6": 1379,
      "##2": 1380,
      "##8": 1381,
      "##1": 1382,
      "##3": 1383,
      "##ø": 1384,
      "##x": 1385,
      "##5": 1386,
      "##4": 1387,
      "##ı": 1388,
      "##j": 1389,
      "##°": 1390,
      "##з": 1391,
      "##б": 1392,
      "##а": 1393,
      "##₂": 1394,
      "##ท": 1395,
      "##ค": 1396,
      "##อ": 1397,
      "##น": 1398,
      "##ข": 1399,
      "##า": 1400,
      "##ง": 1401,
      "##จ": 1402,
      "##ะ": 1403,
      "##ม": 1404,
      "##ก": 1405,
      "##ใ": 1406,
      "##บ": 1407,
      "##ร": 1408,
      "##เ": 1409,
      "##ว": 1410,
      "##ณ": 1411,
      "##م": 1412,
      "##ر": 1413,
      "##พ": 1414,
      "##ฉ": 1415,
      "##ไ": 1416,
      "##ส": 1417,
      "##ถ": 1418,
      "##ป": 1419,
      "##ด": 1420,
      "##ญ": 1421,
      "##ห": 1422,
      "##ย": 1423,
      "##ل": 1424,
      "##ت": 1425,
      "##ع": 1426,
      "##ي": 1427,
      "##ま": 1428,
      "##す": 1429,
      "##н": 1430,
      "##п": 1431,
      "##р": 1432,
      "##и": 1433,
      "##м": 1434,
      "##е": 1435,
      "##ำ": 1436,
      "##ช": 1437,
      "##な": 1438,
      "##り": 1439,
      "##は": 1440,
      "##о": 1441,
      "##я": 1442,
      "##س": 1443,
      "##ق": 1444,
      "##ط": 1445,
      "##ة": 1446,
      "##ك": 1447,
      "##و": 1448,
      "##ز": 1449,
      "##т": 1450,
      "##פ": 1451,
      "##か": 1452,
      "##ص": 1453,
      "##ب": 1454,
      "##る": 1455,
      "##エ": 1456,
      "##ネ": 1457,
      "##ル": 1458,
      "##キ": 1459,
      "##ー": 1460,
      "##を": 1461,
      "##ف": 1462,
      "##ا": 1463,
      "##ن": 1464,
      "##ش": 1465,
      "##て": 1466,
      "##ه": 1467,
      "##ł": 1468,
      "##ᄋ": 1469,
      "##ᅬ": 1470,
      "##ى": 1471,
      "##с": 1472,
      "##в": 1473,
      "##к": 1474,
      "##л": 1475,
      "##д": 1476,
      "##ь": 1477,
      "##ح": 1478,
      "##خ": 1479,
      "##さ": 1480,
      "##ん": 1481,
      "##の": 1482,
      "##у": 1483,
      "##ج": 1484,
      "##ы": 1485,
      "##г": 1486,
      "##ф": 1487,
      "##כ": 1488,
      "##ח": 1489,
      "##ת": 1490,
      "##ض": 1491,
      "##ث": 1492,
      "##し": 1493,
      "##に": 1494,
      "##ظ": 1495,
      "##د": 1496,
      "##ذ": 1497,
      "##х": 1498,
      "##غ": 1499,
      "##ß": 1500,
      "##═": 1501,
      "##れ": 1502,
      "##い": 1503,
      "##く": 1504,
      "##つ": 1505,
      "##た": 1506,
      "##แ": 1507,
      "##ล": 1508,
      "##²": 1509,
      "##ר": 1510,
      "##ק": 1511,
      "##🐦": 1512,
      "##ж": 1513,
      "##と": 1514,
      "##こ": 1515,
      "##あ": 1516,
      "##щ": 1517,
      "##ב": 1518,
      "##ら": 1519,
      "##ю": 1520,
      "##โ": 1521,
      "##מ": 1522,
      "##ל": 1523,
      "##א": 1524,
      "##そ": 1525,
      "##う": 1526,
      "##ч": 1527,
      "##נ": 1528,
      "##き": 1529,
      "##ג": 1530,
      "##ד": 1531,
      "##ט": 1532,
      "##ᅳ": 1533,
      "##ᆫ": 1534,
      "##є": 1535,
      "##æ": 1536,
      "##ц": 1537,
      "##™": 1538,
      "##け": 1539,
      "##ء": 1540,
      "##he": 1541,
      "the": 1542,
      "##in": 1543,
      "##re": 1544,
      "##nd": 1545,
      "of": 1546,
      "##en": 1547,
      "##ar": 1548,
      "##at": 1549,
      "##er": 1550,
      "##on": 1551,
      "##ing": 1552,
      "##ra": 1553,
      "##ed": 1554,
      "and": 1555,
      "##ro": 1556,
      "##st": 1557,
      "in": 1558,
      "##il": 1559,
      "##es": 1560,
      "##it": 1561,
      "is": 1562,
      "##ot": 1563,
      "##ion": 1564,
      "##ir": 1565,
      "##ear": 1566,
      "##ent": 1567,
      "tra": 1568,
      "##al": 1569,
      "##ou": 1570,
      "##or": 1571,
      "##ce": 1572,
      "##an": 1573,
      "trail": 1574,
      "sc": 1575,
      "##ea": 1576,
      "##el": 1577,
      "##ic": 1578,
      "di": 1579,
      "th": 1580,
      "##oo": 1581,
      "##et": 1582,
      "st": 1583,
      "##and": 1584,
      "##ation": 1585,
      "wit": 1586,
      "##ers": 1587,
      "are": 1588,
      "with": 1589,
      "##ly": 1590,
      "##ow": 1591,
      "bro": 1592,
      "##le": 1593,
      "##ken": 1594,
      "##ur": 1595,
      "##ood": 1596,
      "broken": 1597,
      "##ck": 1598,
      "##ss": 1599,
      "##gh": 1600,
      "##ind": 1601,
      "to": 1602,
      "##ri": 1603,
      "##mp": 1604,
      "##red": 1605,
      "##rou": 1606,
      "fo": 1607,
      "##ch": 1608,
      "lea": 1609,
      "##ence": 1610,
      "##se": 1611,
      "##ct": 1612,
      "##id": 1613,
      "scent": 1614,
      "##int": 1615,
      "sm": 1616,
      "an": 1617,
      "or": 1618,
      "lo": 1619,
      "near": 1620,
      "be": 1621,
      "##pe": 1622,
      "##art": 1623,
      "##ge": 1624,
      "ca": 1625,
      "pers": 1626,
      "person": 1627,
      "tre": 1628,
      "##res": 1629,
      "wat": 1630,
      "on": 1631,
      "##sc": 1632,
      "##as": 1633,
      "ch": 1634,
      "wood": 1635,
      "cl": 1636,
      "water": 1637,
      "dist": 1638,
      "##ol": 1639,
      "##nt": 1640,
      "find": 1641,
      "##ay": 1642,
      "##ut": 1643,
      "lead": 1644,
      "##ire": 1645,
      "that": 1646,
      "##ad": 1647,
      "##rom": 1648,
      "##orn": 1649,
      "not": 1650,
      "re": 1651,
      "air": 1652,
      "su": 1653,
      "##round": 1654,
      "##ound": 1655,
      "area": 1656,
      "##ity": 1657,
      "##ght": 1658,
      "from": 1659,
      "##ru": 1660,
      "##te": 1661,
      "foot": 1662,
      "##ke": 1663,
      "po": 1664,
      "##arth": 1665,
      "earth": 1666,
      "##ant": 1667,
      "camp": 1668,
      "##ve": 1669,
      "##rest": 1670,
      "wh": 1671,
      "##ard": 1672,
      "bl": 1673,
      "lost": 1674,
      "worn": 1675,
      "##ack": 1676,
      "ve": 1677,
      "##all": 1678,
      "there": 1679,
      "##rint": 1680,
      "##one": 1681,
      "sh": 1682,
      "##ping": 1683,
      "mi": 1684,
      "##her": 1685,
      "sear": 1686,
      "en": 1687,
      "##get": 1688,
      "fe": 1689,
      "ru": 1690,
      "leading": 1691,
      "so": 1692,
      "land": 1693,
      "tree": 1694,
      "veget": 1695,
      "for": 1696,
      "##print": 1697,
      "fence": 1698,
      "##vid": 1699,
      "##ig": 1700,
      "##ver": 1701,
      "##ount": 1702,
      "footprint": 1703,
      "##irt": 1704,
      "chir": 1705,
      "##if": 1706,
      "chirping": 1707,
      "ro": 1708,
      "search": 1709,
      "##oke": 1710,
      "as": 1711,
      "##ell": 1712,
      "footprints": 1713,
      "##ain": 1714,
      "##ark": 1715,
      "bur": 1716,
      "disc": 1717,
      "dirt": 1718,
      "gra": 1719,
      "vegetation": 1720,
      "hear": 1721,
      "##um": 1722,
      "scat": 1723,
      "##is": 1724,
      "se": 1725,
      "##tered": 1726,
      "##tle": 1727,
      "des": 1728,
      "##ate": 1729,
      "##rough": 1730,
      "##fire": 1731,
      "campfire": 1732,
      "through": 1733,
      "ab": 1734,
      "ground": 1735,
      "##ine": 1736,
      "pat": 1737,
      "##own": 1738,
      "dri": 1739,
      "##ul": 1740,
      "it": 1741,
      "##arded": 1742,
      "discarded": 1743,
      "sound": 1744,
      "##ment": 1745,
      "##ran": 1746,
      "scattered": 1747,
      "de": 1748,
      "##way": 1749,
      "##ong": 1750,
      "clear": 1751,
      "sand": 1752,
      "dried": 1753,
      "co": 1754,
      "wind": 1755,
      "loc": 1756,
      "ne": 1757,
      "bot": 1758,
      "smell": 1759,
      "pl": 1760,
      "##ill": 1761,
      "##ert": 1762,
      "forest": 1763,
      "sp": 1764,
      "by": 1765,
      "##ird": 1766,
      "##hes": 1767,
      "fa": 1768,
      "##resh": 1769,
      "##bed": 1770,
      "smoke": 1771,
      "fresh": 1772,
      "bird": 1773,
      "pi": 1774,
      "bottle": 1775,
      "pres": 1776,
      "##eat": 1777,
      "grass": 1778,
      "leav": 1779,
      "away": 1780,
      "fl": 1781,
      "blood": 1782,
      "##ick": 1783,
      "li": 1784,
      "##age": 1785,
      "##les": 1786,
      "##ral": 1787,
      "do": 1788,
      "whe": 1789,
      "##ape": 1790,
      "den": 1791,
      "##ign": 1792,
      "##ld": 1793,
      "leaves": 1794,
      "mark": 1795,
      "location": 1796,
      "##ated": 1797,
      "can": 1798,
      "col": 1799,
      "clearing": 1800,
      "desert": 1801,
      "woods": 1802,
      "pro": 1803,
      "landsc": 1804,
      "ha": 1805,
      "##ther": 1806,
      "burn": 1807,
      "##im": 1808,
      "##ter": 1809,
      "but": 1810,
      "landscape": 1811,
      "miss": 1812,
      "##mation": 1813,
      "rock": 1814,
      "##ely": 1815,
      "presence": 1816,
      "path": 1817,
      "trees": 1818,
      "##ling": 1819,
      "pie": 1820,
      "bri": 1821,
      "city": 1822,
      "##ore": 1823,
      "has": 1824,
      "##us": 1825,
      "see": 1826,
      "sign": 1827,
      "pine": 1828,
      "##ble": 1829,
      "##urbed": 1830,
      "##am": 1831,
      "##ial": 1832,
      "##pp": 1833,
      "##ry": 1834,
      "am": 1835,
      "##nder": 1836,
      "at": 1837,
      "hum": 1838,
      "con": 1839,
      "int": 1840,
      "##out": 1841,
      "det": 1842,
      "rust": 1843,
      "my": 1844,
      "##rain": 1845,
      "##iron": 1846,
      "ter": 1847,
      "birds": 1848,
      "##ild": 1849,
      "disturbed": 1850,
      "terrain": 1851,
      "##ud": 1852,
      "env": 1853,
      "piece": 1854,
      "environ": 1855,
      "environment": 1856,
      "part": 1857,
      "##ific": 1858,
      "##ail": 1859,
      "distant": 1860,
      "##ction": 1861,
      "faint": 1862,
      "need": 1863,
      "bar": 1864,
      "##ue": 1865,
      "##iv": 1866,
      "found": 1867,
      "##ast": 1868,
      "rem": 1869,
      "##ess": 1870,
      "back": 1871,
      "been": 1872,
      "evid": 1873,
      "##king": 1874,
      "##ghtly": 1875,
      "out": 1876,
      "un": 1877,
      "ex": 1878,
      "##ored": 1879,
      "##pec": 1880,
      "##low": 1881,
      "ty": 1882,
      "char": 1883,
      "detail": 1884,
      "evidence": 1885,
      "lone": 1886,
      "bran": 1887,
      "into": 1888,
      "##for": 1889,
      "##ould": 1890,
      "##amp": 1891,
      "spar": 1892,
      "provid": 1893,
      "##ass": 1894,
      "##gion": 1895,
      "al": 1896,
      "spec": 1897,
      "enc": 1898,
      "sen": 1899,
      "##ap": 1900,
      "##ional": 1901,
      "where": 1902,
      "down": 1903,
      "##sw": 1904,
      "##rick": 1905,
      "colored": 1906,
      "brightly": 1907,
      "such": 1908,
      "few": 1909,
      "encount": 1910,
      "this": 1911,
      "sage": 1912,
      "##ets": 1913,
      "over": 1914,
      "##ance": 1915,
      "type": 1916,
      "specific": 1917,
      "pop": 1918,
      "have": 1919,
      "small": 1920,
      "popul": 1921,
      "##mb": 1922,
      "te": 1923,
      "##sh": 1924,
      "ind": 1925,
      "##ft": 1926,
      "##ile": 1927,
      "soil": 1928,
      "##cent": 1929,
      "##earest": 1930,
      "nearest": 1931,
      "##pack": 1932,
      "backpack": 1933,
      "##ite": 1934,
      "##ect": 1935,
      "dire": 1936,
      "infor": 1937,
      "information": 1938,
      "burning": 1939,
      "details": 1940,
      "answ": 1941,
      "##ous": 1942,
      "damp": 1943,
      "wild": 1944,
      "needles": 1945,
      "dry": 1946,
      "crick": 1947,
      "crickets": 1948,
      "##led": 1949,
      "recent": 1950,
      "missing": 1951,
      "##oth": 1952,
      "##by": 1953,
      "mo": 1954,
      "rustling": 1955,
      "encounter": 1956,
      "##ially": 1957,
      "sur": 1958,
      "nearby": 1959,
      "direction": 1960,
      "rel": 1961,
      "##row": 1962,
      "##atu": 1963,
      "track": 1964,
      "ec": 1965,
      "might": 1966,
      "##dd": 1967,
      "##ich": 1968,
      "##ches": 1969,
      "##eri": 1970,
      "##th": 1971,
      "##andon": 1972,
      "abandon": 1973,
      "##ention": 1974,
      "abandoned": 1975,
      "lar": 1976,
      "##vel": 1977,
      "##oregion": 1978,
      "ecoregion": 1979,
      "inc": 1980,
      "state": 1981,
      "##cc": 1982,
      "sense": 1983,
      "##ang": 1984,
      "large": 1985,
      "##ep": 1986,
      "hi": 1987,
      "signs": 1988,
      "##hed": 1989,
      "which": 1990,
      "other": 1991,
      "count": 1992,
      "##ject": 1993,
      "##our": 1994,
      "##bject": 1995,
      "cloth": 1996,
      "stand": 1997,
      "##me": 1998,
      "op": 1999,
      "tracks": 2000,
      "##pl": 2001,
      "add": 2002,
      "indic": 2003,
      "##ills": 2004,
      "##qu": 2005,
      "res": 2006,
      "population": 2007,
      "under": 2008,
      "fire": 2009,
      "marker": 2010,
      "ri": 2011,
      "##ming": 2012,
      "answer": 2013,
      "str": 2014,
      "rural": 2015,
      "feel": 2016,
      "##rush": 2017,
      "open": 2018,
      "addit": 2019,
      "additional": 2020,
      "its": 2021,
      "##imal": 2022,
      "strong": 2023,
      "no": 2024,
      "about": 2025,
      "county": 2026,
      "mention": 2027,
      "##ants": 2028,
      "stone": 2029,
      "animal": 2030,
      "sun": 2031,
      "##xt": 2032,
      "app": 2033,
      "##ag": 2034,
      "tall": 2035,
      "bre": 2036,
      "partially": 2037,
      "cre": 2038,
      "surround": 2039,
      "weat": 2040,
      "##ight": 2041,
      "##ace": 2042,
      "bo": 2043,
      "##ssi": 2044,
      "these": 2045,
      "distance": 2046,
      "they": 2047,
      "occ": 2048,
      "##mpt": 2049,
      "##bb": 2050,
      "##ff": 2051,
      "indicat": 2052,
      "##ical": 2053,
      "##ces": 2054,
      "up": 2055,
      "flat": 2056,
      "##wn": 2057,
      "##act": 2058,
      "##hered": 2059,
      "sparse": 2060,
      "##ris": 2061,
      "##rub": 2062,
      "bus": 2063,
      "stre": 2064,
      "##ak": 2065,
      "remn": 2066,
      "human": 2067,
      "branches": 2068,
      "##ied": 2069,
      "act": 2070,
      "remnants": 2071,
      "##brush": 2072,
      "feeling": 2073,
      "##ering": 2074,
      "sk": 2075,
      "she": 2076,
      "text": 2077,
      "subject": 2078,
      "##un": 2079,
      "sagebrush": 2080,
      "was": 2081,
      "##idd": 2082,
      "woodsm": 2083,
      "le": 2084,
      "woodsmoke": 2085,
      "##om": 2086,
      "expl": 2087,
      "appear": 2088,
      "empt": 2089,
      "cont": 2090,
      "##site": 2091,
      "gl": 2092,
      "point": 2093,
      "loo": 2094,
      "##ist": 2095,
      "##atural": 2096,
      "##ren": 2097,
      "##ains": 2098,
      "##arm": 2099,
      "##grow": 2100,
      "deb": 2101,
      "shrub": 2102,
      "debris": 2103,
      "lot": 2104,
      "burnt": 2105,
      "##dge": 2106,
      "red": 2107,
      "travel": 2108,
      "activ": 2109,
      "standing": 2110,
      "map": 2111,
      "##ide": 2112,
      "shel": 2113,
      "##ip": 2114,
      "##op": 2115,
      "empty": 2116,
      "ph": 2117,
      "##ched": 2118,
      "##lud": 2119,
      "river": 2120,
      "possi": 2121,
      "bread": 2122,
      "cut": 2123,
      "campsite": 2124,
      "dense": 2125,
      "##ings": 2126,
      "denot": 2127,
      "lik": 2128,
      "note": 2129,
      "clothing": 2130,
      "fad": 2131,
      "##range": 2132,
      "road": 2133,
      "sol": 2134,
      "some": 2135,
      "pe": 2136,
      "##we": 2137,
      "##ys": 2138,
      "any": 2139,
      "while": 2140,
      "tw": 2141,
      "includ": 2142,
      "##ive": 2143,
      "##mm": 2144,
      "likely": 2145,
      "charred": 2146,
      "freshly": 2147,
      "provide": 2148,
      "##ust": 2149,
      "could": 2150,
      "soft": 2151,
      "##angled": 2152,
      "hay": 2153,
      "stra": 2154,
      "stream": 2155,
      "kn": 2156,
      "leads": 2157,
      "##growth": 2158,
      "##ale": 2159,
      "undergrowth": 2160,
      "provided": 2161,
      "charact": 2162,
      "formation": 2163,
      "mission": 2164,
      "##ness": 2165,
      "characteri": 2166,
      "boot": 2167,
      "##flow": 2168,
      "shelter": 2169,
      "##ease": 2170,
      "##bin": 2171,
      "cabin": 2172,
      "fills": 2173,
      "##ade": 2174,
      "natural": 2175,
      "related": 2176,
      "ling": 2177,
      "##sely": 2178,
      "wildflow": 2179,
      "##land": 2180,
      "tangled": 2181,
      "##ility": 2182,
      "branch": 2183,
      "around": 2184,
      "burned": 2185,
      "weathered": 2186,
      "barren": 2187,
      "fol": 2188,
      "##icit": 2189,
      "explicit": 2190,
      "post": 2191,
      "bu": 2192,
      "wildflowers": 2193,
      "searching": 2194,
      "activity": 2195,
      "##ure": 2196,
      "tow": 2197,
      "occur": 2198,
      "place": 2199,
      "##ead": 2200,
      "pot": 2201,
      "phys": 2202,
      "explicitly": 2203,
      "faded": 2204,
      "##ten": 2205,
      "physical": 2206,
      "##zed": 2207,
      "##ms": 2208,
      "scra": 2209,
      "flow": 2210,
      "us": 2211,
      "##ose": 2212,
      "##ily": 2213,
      "possib": 2214,
      "surrounding": 2215,
      "fi": 2216,
      "old": 2217,
      "indicator": 2218,
      "sug": 2219,
      "##gest": 2220,
      "hiking": 2221,
      "wooden": 2222,
      "##urn": 2223,
      "barn": 2224,
      "##ric": 2225,
      "##os": 2226,
      "##eld": 2227,
      "bushes": 2228,
      "##ual": 2229,
      "suggest": 2230,
      "ring": 2231,
      "##sity": 2232,
      "whether": 2233,
      "sparsely": 2234,
      "please": 2235,
      "##ac": 2236,
      "density": 2237,
      "hot": 2238,
      "myst": 2239,
      "being": 2240,
      "ge": 2241,
      "tru": 2242,
      "denotes": 2243,
      "upon": 2244,
      "##inct": 2245,
      "id": 2246,
      "ag": 2247,
      "##are": 2248,
      "distinct": 2249,
      "notes": 2250,
      "sky": 2251,
      "##ffic": 2252,
      "per": 2253,
      "characterized": 2254,
      "ar": 2255,
      "##ating": 2256,
      "##ere": 2257,
      "left": 2258,
      "beh": 2259,
      "##urned": 2260,
      "##zing": 2261,
      "field": 2262,
      "their": 2263,
      "potent": 2264,
      "glass": 2265,
      "mount": 2266,
      "##umble": 2267,
      "vis": 2268,
      "##idst": 2269,
      "##ort": 2270,
      "most": 2271,
      "##ener": 2272,
      "overt": 2273,
      "brown": 2274,
      "appears": 2275,
      "warm": 2276,
      "overturned": 2277,
      "amidst": 2278,
      "##ross": 2279,
      "dust": 2280,
      "met": 2281,
      "##ible": 2282,
      "fra": 2283,
      "##ote": 2284,
      "like": 2285,
      "known": 2286,
      "##ough": 2287,
      "##ards": 2288,
      "##cue": 2289,
      "##able": 2290,
      "car": 2291,
      "##ents": 2292,
      "seeming": 2293,
      "seemingly": 2294,
      "twig": 2295,
      "##ones": 2296,
      "##allen": 2297,
      "##ries": 2298,
      "hel": 2299,
      "##iddle": 2300,
      "ident": 2301,
      "gener": 2302,
      "##cho": 2303,
      "##rit": 2304,
      "tran": 2305,
      "echo": 2306,
      "emb": 2307,
      "rescue": 2308,
      "behind": 2309,
      "comm": 2310,
      "coo": 2311,
      "solit": 2312,
      "ite": 2313,
      "trails": 2314,
      "##rumb": 2315,
      "embers": 2316,
      "shrubs": 2317,
      "stumble": 2318,
      "frag": 2319,
      "middle": 2320,
      "##ies": 2321,
      "tranqu": 2322,
      "##ven": 2323,
      "off": 2324,
      "##ery": 2325,
      "along": 2326,
      "cact": 2327,
      "what": 2328,
      "##ource": 2329,
      "would": 2330,
      "follow": 2331,
      "##io": 2332,
      "bel": 2333,
      "ashes": 2334,
      "pin": 2335,
      "pile": 2336,
      "still": 2337,
      "general": 2338,
      "eas": 2339,
      "possibly": 2340,
      "leat": 2341,
      "leather": 2342,
      "tranquility": 2343,
      "scrap": 2344,
      "##ice": 2345,
      "stones": 2346,
      "twigs": 2347,
      "##eps": 2348,
      "look": 2349,
      "does": 2350,
      "edge": 2351,
      "##ered": 2352,
      "gender": 2353,
      "##uest": 2354,
      "footst": 2355,
      "footsteps": 2356,
      "fab": 2357,
      "fabric": 2358,
      "##ame": 2359,
      "contain": 2360,
      "occurs": 2361,
      "blow": 2362,
      "mud": 2363,
      "visible": 2364,
      "dec": 2365,
      "fallen": 2366,
      "##min": 2367,
      "bas": 2368,
      "##ified": 2369,
      "if": 2370,
      "wire": 2371,
      "##ult": 2372,
      "##akes": 2373,
      "##gg": 2374,
      "torn": 2375,
      "isol": 2376,
      "ber": 2377,
      "##ident": 2378,
      "la": 2379,
      "##tern": 2380,
      "me": 2381,
      "##weet": 2382,
      "##head": 2383,
      "sweet": 2384,
      "ac": 2385,
      "recently": 2386,
      "pass": 2387,
      "##ban": 2388,
      "park": 2389,
      "help": 2390,
      "domin": 2391,
      "well": 2392,
      "grasses": 2393,
      "mountain": 2394,
      "rocky": 2395,
      "vast": 2396,
      "may": 2397,
      "od": 2398,
      "berries": 2399,
      "made": 2400,
      "low": 2401,
      "##ory": 2402,
      "odor": 2403,
      "##eath": 2404,
      "ben": 2405,
      "deep": 2406,
      "food": 2407,
      "sounds": 2408,
      "##ourn": 2409,
      "journ": 2410,
      "town": 2411,
      "stru": 2412,
      "side": 2413,
      "use": 2414,
      "nor": 2415,
      "set": 2416,
      "name": 2417,
      "orange": 2418,
      "##ativ": 2419,
      "##nk": 2420,
      "ur": 2421,
      "trunk": 2422,
      "metal": 2423,
      "##fore": 2424,
      "rocks": 2425,
      "##dy": 2426,
      "##ved": 2427,
      "fragment": 2428,
      "used": 2429,
      "##so": 2430,
      "hand": 2431,
      "pipe": 2432,
      "dis": 2433,
      "bridge": 2434,
      "ho": 2435,
      "##ude": 2436,
      "quest": 2437,
      "common": 2438,
      "question": 2439,
      "beneath": 2440,
      "coy": 2441,
      "##arily": 2442,
      "strange": 2443,
      "##bbles": 2444,
      "night": 2445,
      "##erious": 2446,
      "long": 2447,
      "##rumbs": 2448,
      "clim": 2449,
      "mysterious": 2450,
      "sn": 2451,
      "party": 2452,
      "##vas": 2453,
      "gate": 2454,
      "towards": 2455,
      "weather": 2456,
      "##ish": 2457,
      "how": 2458,
      "moss": 2459,
      "##ged": 2460,
      "##ift": 2461,
      "last": 2462,
      "sandy": 2463,
      "makes": 2464,
      "window": 2465,
      "##ful": 2466,
      "##ove": 2467,
      "##idden": 2468,
      "isolation": 2469,
      "hidden": 2470,
      "cent": 2471,
      "therefore": 2472,
      "##ting": 2473,
      "source": 2474,
      "stick": 2475,
      "##ining": 2476,
      "notice": 2477,
      "canvas": 2478,
      "will": 2479,
      "incident": 2480,
      "thick": 2481,
      "male": 2482,
      "vegetated": 2483,
      "hills": 2484,
      "rustle": 2485,
      "potential": 2486,
      "mess": 2487,
      "gas": 2488,
      "pattern": 2489,
      "##ern": 2490,
      "urban": 2491,
      "rubb": 2492,
      "shad": 2493,
      "traffic": 2494,
      "solitude": 2495,
      "rubber": 2496,
      "##hift": 2497,
      "makeshift": 2498,
      "journal": 2499,
      "sing": 2500,
      "##pt": 2501,
      "gasol": 2502,
      "class": 2503,
      "blowing": 2504,
      "across": 2505,
      "##pped": 2506,
      "gasoline": 2507,
      "cons": 2508,
      "##atively": 2509,
      "sout": 2510,
      "##rop": 2511,
      "##aying": 2512,
      "##ained": 2513,
      "areas": 2514,
      "hair": 2515,
      "prop": 2516,
      "again": 2517,
      "against": 2518,
      "cow": 2519,
      "##its": 2520,
      "##here": 2521,
      "wal": 2522,
      "occas": 2523,
      "occasional": 2524,
      "pebbles": 2525,
      "whist": 2526,
      "##ular": 2527,
      "ash": 2528,
      "traces": 2529,
      "##cts": 2530,
      "relatively": 2531,
      "reve": 2532,
      "belong": 2533,
      "reveal": 2534,
      "humid": 2535,
      "stands": 2536,
      "##iz": 2537,
      "climate": 2538,
      "##ock": 2539,
      "##yon": 2540,
      "her": 2541,
      "easy": 2542,
      "gre": 2543,
      "plains": 2544,
      "cacti": 2545,
      "##ary": 2546,
      "included": 2547,
      "items": 2548,
      "fem": 2549,
      "female": 2550,
      "someone": 2551,
      "coming": 2552,
      "canop": 2553,
      "also": 2554,
      "##allow": 2555,
      "all": 2556,
      "canopy": 2557,
      "lingers": 2558,
      "comp": 2559,
      "deeper": 2560,
      "##uck": 2561,
      "rea": 2562,
      "pow": 2563,
      "##est": 2564,
      "even": 2565,
      "man": 2566,
      "north": 2567,
      "##tering": 2568,
      "rep": 2569,
      "buz": 2570,
      "sight": 2571,
      "##ious": 2572,
      "region": 2573,
      "##ek": 2574,
      "object": 2575,
      "##erness": 2576,
      "wilderness": 2577,
      "sever": 2578,
      "##cess": 2579,
      "##vers": 2580,
      "several": 2581,
      "jun": 2582,
      "sw": 2583,
      "earthy": 2584,
      "markings": 2585,
      "dog": 2586,
      "should": 2587,
      "thin": 2588,
      "ma": 2589,
      "single": 2590,
      "mostly": 2591,
      "##hic": 2592,
      "##ritten": 2593,
      "overhead": 2594,
      "high": 2595,
      "buzzing": 2596,
      "##der": 2597,
      "sens": 2598,
      "heard": 2599,
      "##ife": 2600,
      "canyon": 2601,
      "populated": 2602,
      "creek": 2603,
      "sl": 2604,
      "smo": 2605,
      "necess": 2606,
      "junip": 2607,
      "##ug": 2608,
      "environmental": 2609,
      "birdsong": 2610,
      "wooded": 2611,
      "pea": 2612,
      "grassland": 2613,
      "bush": 2614,
      "perm": 2615,
      "whistle": 2616,
      "decaying": 2617,
      "##over": 2618,
      "##ortion": 2619,
      "##antly": 2620,
      "permeat": 2621,
      "new": 2622,
      "pred": 2623,
      "pa": 2624,
      "lit": 2625,
      "##rid": 2626,
      "cat": 2627,
      "breadc": 2628,
      "shallow": 2629,
      "necessarily": 2630,
      "coyote": 2631,
      "sil": 2632,
      "breadcrumbs": 2633,
      "fragments": 2634,
      "##ab": 2635,
      "who": 2636,
      "gravel": 2637,
      "flowing": 2638,
      "##aper": 2639,
      "list": 2640,
      "inse": 2641,
      "pit": 2642,
      "##illed": 2643,
      "vehic": 2644,
      "classified": 2645,
      "patches": 2646,
      "em": 2647,
      "dam": 2648,
      "repres": 2649,
      "animals": 2650,
      "echoes": 2651,
      "def": 2652,
      "permeates": 2653,
      "design": 2654,
      "##aced": 2655,
      "identif": 2656,
      "cool": 2657,
      "here": 2658,
      "##vered": 2659,
      "insects": 2660,
      "log": 2661,
      "lingering": 2662,
      "exp": 2663,
      "covered": 2664,
      "##ving": 2665,
      "withered": 2666,
      "##arp": 2667,
      "peace": 2668,
      "##old": 2669,
      "juniper": 2670,
      "temp": 2671,
      "formations": 2672,
      "featu": 2673,
      "##ows": 2674,
      "##omin": 2675,
      "predomin": 2676,
      "##ts": 2677,
      "indi": 2678,
      "##ather": 2679,
      "pieces": 2680,
      "att": 2681,
      "south": 2682,
      "plast": 2683,
      "##iet": 2684,
      "pre": 2685,
      "scattering": 2686,
      "whose": 2687,
      "qu": 2688,
      "##umb": 2689,
      "local": 2690,
      "plastic": 2691,
      "walking": 2692,
      "##rib": 2693,
      "proportion": 2694,
      "sharp": 2695,
      "desc": 2696,
      "##aged": 2697,
      "represents": 2698,
      "trace": 2699,
      "vehicle": 2700,
      "based": 2701,
      "loose": 2702,
      "finding": 2703,
      "##ise": 2704,
      "vi": 2705,
      "tea": 2706,
      "pu": 2707,
      "bark": 2708,
      "strand": 2709,
      "herb": 2710,
      "##ord": 2711,
      "mountainous": 2712,
      "peop": 2713,
      "people": 2714,
      "cold": 2715,
      "within": 2716,
      "farm": 2717,
      "creating": 2718,
      "rope": 2719,
      "rad": 2720,
      "grazing": 2721,
      "present": 2722,
      "scor": 2723,
      "them": 2724,
      "indicating": 2725,
      "##ork": 2726,
      "##vidual": 2727,
      "individual": 2728,
      "scen": 2729,
      "marked": 2730,
      "bees": 2731,
      "one": 2732,
      "above": 2733,
      "cig": 2734,
      "paper": 2735,
      "bed": 2736,
      "##omet": 2737,
      "##hing": 2738,
      "redd": 2739,
      "##aret": 2740,
      "shrubland": 2741,
      "cigaret": 2742,
      "reddish": 2743,
      "prom": 2744,
      "##enc": 2745,
      "temper": 2746,
      "marking": 2747,
      "partic": 2748,
      "predominantly": 2749,
      "including": 2750,
      "fru": 2751,
      "handw": 2752,
      "##inent": 2753,
      "feet": 2754,
      "##ime": 2755,
      "distinctive": 2756,
      "mystery": 2757,
      "unus": 2758,
      "hearing": 2759,
      "inter": 2760,
      "radio": 2761,
      "discover": 2762,
      "prominent": 2763,
      "##ient": 2764,
      "##zz": 2765,
      "scraps": 2766,
      "##ities": 2767,
      "dominated": 2768,
      "center": 2769,
      "##ears": 2770,
      "damaged": 2771,
      "##son": 2772,
      "watched": 2773,
      "const": 2774,
      "signific": 2775,
      "unusual": 2776,
      "surrounded": 2777,
      "ob": 2778,
      "glow": 2779,
      "shade": 2780,
      "arom": 2781,
      "muddy": 2782,
      "##mal": 2783,
      "color": 2784,
      "var": 2785,
      "own": 2786,
      "traveled": 2787,
      "##ching": 2788,
      "designed": 2789,
      "towering": 2790,
      "winding": 2791,
      "##av": 2792,
      "flowers": 2793,
      "handwritten": 2794,
      "puzz": 2795,
      "cru": 2796,
      "fur": 2797,
      "main": 2798,
      "arid": 2799,
      "answers": 2800,
      "potentially": 2801,
      "setting": 2802,
      "cra": 2803,
      "##ev": 2804,
      "##imp": 2805,
      "personal": 2806,
      "yes": 2807,
      "##ition": 2808,
      "deer": 2809,
      "##isp": 2810,
      "pri": 2811,
      "cigarette": 2812,
      "flo": 2813,
      "remain": 2814,
      "##osp": 2815,
      "puzzle": 2816,
      "cooking": 2817,
      "ref": 2818,
      "rol": 2819,
      "wet": 2820,
      "barbed": 2821,
      "diffic": 2822,
      "difficult": 2823,
      "##irc": 2824,
      "denoted": 2825,
      "further": 2826,
      "gu": 2827,
      "circ": 2828,
      "##cher": 2829,
      "aroma": 2830,
      "imp": 2831,
      "remote": 2832,
      "travers": 2833,
      "sy": 2834,
      "atm": 2835,
      "atmosp": 2836,
      "rolling": 2837,
      "relev": 2838,
      "filled": 2839,
      "struct": 2840,
      "sec": 2841,
      "bloodst": 2842,
      "fruit": 2843,
      "patch": 2844,
      "atmosphere": 2845,
      "brush": 2846,
      "smells": 2847,
      "cross": 2848,
      "##ning": 2849,
      "arch": 2850,
      "relevant": 2851,
      "container": 2852,
      "passage": 2853,
      "identify": 2854,
      "pointing": 2855,
      "whisp": 2856,
      "tied": 2857,
      "cover": 2858,
      "mam": 2859,
      "##ates": 2860,
      "hik": 2861,
      "mammal": 2862,
      "hole": 2863,
      "##ze": 2864,
      "buried": 2865,
      "attention": 2866,
      "canyons": 2867,
      "contents": 2868,
      "##ung": 2869,
      "features": 2870,
      "foc": 2871,
      "team": 2872,
      "focus": 2873,
      "print": 2874,
      "##ush": 2875,
      "amount": 2876,
      "mes": 2877,
      "defining": 2878,
      "item": 2879,
      "solve": 2880,
      "##gra": 2881,
      "searcher": 2882,
      "marks": 2883,
      "west": 2884,
      "those": 2885,
      "hor": 2886,
      "unn": 2887,
      "##end": 2888,
      "dusty": 2889,
      "create": 2890,
      "##met": 2891,
      "##emb": 2892,
      "##ted": 2893,
      "##que": 2894,
      "foli": 2895,
      "##bl": 2896,
      "activities": 2897,
      "foliage": 2898,
      "unnatural": 2899,
      "pay": 2900,
      "than": 2901,
      "were": 2902,
      "##ines": 2903,
      "##mpled": 2904,
      "think": 2905,
      "possible": 2906,
      "fri": 2907,
      "##bra": 2908,
      "remaining": 2909,
      "shadows": 2910,
      "build": 2911,
      "sub": 2912,
      "##aked": 2913,
      "particular": 2914,
      "requ": 2915,
      "temperate": 2916,
      "strugg": 2917,
      "##wood": 2918,
      "uni": 2919,
      "hol": 2920,
      "significant": 2921,
      "##attered": 2922,
      "riverbed": 2923,
      "friend": 2924,
      "include": 2925,
      "truck": 2926,
      "traverse": 2927,
      "##ks": 2928,
      "##ph": 2929,
      "seen": 2930,
      "skin": 2931,
      "thorn": 2932,
      "resid": 2933,
      "##uous": 2934,
      "surf": 2935,
      "years": 2936,
      "mat": 2937,
      "nar": 2938,
      "cactus": 2939,
      "somet": 2940,
      "##life": 2941,
      "cast": 2942,
      "hang": 2943,
      "wildlife": 2944,
      "summ": 2945,
      "throughout": 2946,
      "und": 2947,
      "friendly": 2948,
      "dead": 2949,
      "unique": 2950,
      "quiet": 2951,
      "smold": 2952,
      "blue": 2953,
      "tire": 2954,
      "##side": 2955,
      "york": 2956,
      "##ia": 2957,
      "spot": 2958,
      "crack": 2959,
      "##ency": 2960,
      "describ": 2961,
      "##ranged": 2962,
      "sensory": 2963,
      "boots": 2964,
      "##cted": 2965,
      "##ider": 2966,
      "##blown": 2967,
      "light": 2968,
      "windblown": 2969,
      "scenar": 2970,
      "kil": 2971,
      "##ctor": 2972,
      "smoldering": 2973,
      "##sk": 2974,
      "##po": 2975,
      "bloodstained": 2976,
      "lack": 2977,
      "struggle": 2978,
      "hat": 2979,
      "##ie": 2980,
      "though": 2981,
      "oak": 2982,
      "reason": 2983,
      "kilomet": 2984,
      "##ungent": 2985,
      "pungent": 2986,
      "surroundings": 2987,
      "possibility": 2988,
      "encountered": 2989,
      "glimp": 2990,
      "##placed": 2991,
      "wra": 2992,
      "arranged": 2993,
      "past": 2994,
      "solitary": 2995,
      "shore": 2996,
      "##unt": 2997,
      "hollow": 2998,
      "##mark": 2999,
      "dominant": 3000,
      "##west": 3001,
      "stains": 3002,
      "shirt": 3003,
      "day": 3004,
      "remains": 3005,
      "rain": 3006,
      "pond": 3007,
      "narrow": 3008,
      "scenario": 3009,
      "something": 3010,
      "paint": 3011,
      "way": 3012,
      "peel": 3013,
      "head": 3014,
      "suggests": 3015,
      "straw": 3016,
      "hea": 3017,
      "##not": 3018,
      "smelling": 3019,
      "white": 3020,
      "mar": 3021,
      "only": 3022,
      "archway": 3023,
      "enough": 3024,
      "cante": 3025,
      "canteen": 3026,
      "##ded": 3027,
      "##earing": 3028,
      "stray": 3029,
      "mon": 3030,
      "##ures": 3031,
      "##lean": 3032,
      "glimpse": 3033,
      "cannot": 3034,
      "cond": 3035,
      "##less": 3036,
      "leaving": 3037,
      "without": 3038,
      "surface": 3039,
      "logs": 3040,
      "pack": 3041,
      "numb": 3042,
      "occurred": 3043,
      "cd": 3044,
      "tread": 3045,
      "##oof": 3046,
      "mild": 3047,
      "cdp": 3048,
      "belongings": 3049,
      "sli": 3050,
      "easily": 3051,
      "nest": 3052,
      "lean": 3053,
      "cur": 3054,
      "brit": 3055,
      "##ssist": 3056,
      "brittle": 3057,
      "assist": 3058,
      "##vest": 3059,
      "green": 3060,
      "close": 3061,
      "vibra": 3062,
      "vibrant": 3063,
      "clean": 3064,
      "end": 3065,
      "##kn": 3066,
      "passing": 3067,
      "##aking": 3068,
      "mountains": 3069,
      "number": 3070,
      "##app": 3071,
      "wint": 3072,
      "star": 3073,
      "eman": 3074,
      "camping": 3075,
      "slightly": 3076,
      "east": 3077,
      "unkn": 3078,
      "unknown": 3079,
      "##ative": 3080,
      "whispers": 3081,
      "smooth": 3082,
      "ent": 3083,
      "cal": 3084,
      "forested": 3085,
      "howl": 3086,
      "##ips": 3087,
      "jack": 3088,
      "##gre": 3089,
      "scorched": 3090,
      "##ature": 3091,
      "line": 3092,
      "##ins": 3093,
      "baked": 3094,
      "compass": 3095,
      "heav": 3096,
      "seems": 3097,
      "pra": 3098,
      "flag": 3099,
      "##ee": 3100,
      "typ": 3101,
      "jug": 3102,
      "resemb": 3103,
      "##ict": 3104,
      "time": 3105,
      "##kened": 3106,
      "commonly": 3107,
      "amb": 3108,
      "desol": 3109,
      "looking": 3110,
      "containing": 3111,
      "bree": 3112,
      "landmark": 3113,
      "##ept": 3114,
      "##though": 3115,
      "acc": 3116,
      "##wise": 3117,
      "breeze": 3118,
      "blac": 3119,
      "blackened": 3120,
      "bea": 3121,
      "otherwise": 3122,
      "cattle": 3123,
      "emanating": 3124,
      "##ited": 3125,
      "leaning": 3126,
      "##stic": 3127,
      "secre": 3128,
      "often": 3129,
      "##ured": 3130,
      "fert": 3131,
      "located": 3132,
      "inv": 3133,
      "##isturbed": 3134,
      "undisturbed": 3135,
      "indicate": 3136,
      "disapp": 3137,
      "gent": 3138,
      "refle": 3139,
      "##ination": 3140,
      "many": 3141,
      "consider": 3142,
      "sex": 3143,
      "twist": 3144,
      "shard": 3145,
      "listed": 3146,
      "ad": 3147,
      "more": 3148,
      "although": 3149,
      "hunt": 3150,
      "##aten": 3151,
      "shattered": 3152,
      "##ans": 3153,
      "##grown": 3154,
      "overgrown": 3155,
      "diff": 3156,
      "##gging": 3157,
      "ambig": 3158,
      "phone": 3159,
      "desolate": 3160,
      "once": 3161,
      "prim": 3162,
      "##alt": 3163,
      "prev": 3164,
      "af": 3165,
      "##story": 3166,
      "##ror": 3167,
      "rest": 3168,
      "##heast": 3169,
      "##ption": 3170,
      "##na": 3171,
      "##light": 3172,
      "ambiguous": 3173,
      "call": 3174,
      "##eds": 3175,
      "mir": 3176,
      "characteristic": 3177,
      "identified": 3178,
      "##ey": 3179,
      "bloo": 3180,
      "twisted": 3181,
      "come": 3182,
      "plants": 3183,
      "tent": 3184,
      "fertile": 3185,
      "prair": 3186,
      "##co": 3187,
      "feather": 3188,
      "particularly": 3189,
      "el": 3190,
      "##bbon": 3191,
      "lave": 3192,
      "lavender": 3193,
      "ribbon": 3194,
      "scar": 3195,
      "val": 3196,
      "secrets": 3197,
      "ded": 3198,
      "hard": 3199,
      "bott": 3200,
      "resource": 3201,
      "dedu": 3202,
      "invol": 3203,
      "powd": 3204,
      "##rig": 3205,
      "dug": 3206,
      "cracked": 3207,
      "powder": 3208,
      "word": 3209,
      "symb": 3210,
      "##osed": 3211,
      "good": 3212,
      "symbol": 3213,
      "thorny": 3214,
      "bone": 3215,
      "seem": 3216,
      "bright": 3217,
      "desp": 3218,
      "body": 3219,
      "crumb": 3220,
      "##thern": 3221,
      "wrapp": 3222,
      "traveling": 3223,
      "hiker": 3224,
      "dev": 3225,
      "##ably": 3226,
      "mirror": 3227,
      "had": 3228,
      "##agged": 3229,
      "##ires": 3230,
      "##erent": 3231,
      "herbs": 3232,
      "##room": 3233,
      "oil": 3234,
      "different": 3235,
      "root": 3236,
      "building": 3237,
      "##ices": 3238,
      "anc": 3239,
      "##pings": 3240,
      "ancient": 3241,
      "##ription": 3242,
      "identity": 3243,
      "revealing": 3244,
      "signal": 3245,
      "spl": 3246,
      "pur": 3247,
      "commun": 3248,
      "##ho": 3249,
      "grow": 3250,
      "mush": 3251,
      "##reg": 3252,
      "agency": 3253,
      "mushroom": 3254,
      "vo": 3255,
      "digging": 3256,
      "##swept": 3257,
      "##sp": 3258,
      "windswept": 3259,
      "powdery": 3260,
      "ev": 3261,
      "residue": 3262,
      "jacket": 3263,
      "##urb": 3264,
      "morn": 3265,
      "prick": 3266,
      "points": 3267,
      "liz": 3268,
      "tuck": 3269,
      "##izon": 3270,
      "rou": 3271,
      "horizon": 3272,
      "tucked": 3273,
      "une": 3274,
      "prairie": 3275,
      "settle": 3276,
      "cans": 3277,
      "route": 3278,
      "settlement": 3279,
      "blea": 3280,
      "##ources": 3281,
      "dep": 3282,
      "hint": 3283,
      "morning": 3284,
      "blown": 3285,
      "##ana": 3286,
      "watering": 3287,
      "central": 3288,
      "structure": 3289,
      "##bel": 3290,
      "bare": 3291,
      "stuck": 3292,
      "##ever": 3293,
      "##bo": 3294,
      "##uring": 3295,
      "bag": 3296,
      "evening": 3297,
      "ran": 3298,
      "outc": 3299,
      "fit": 3300,
      "##ges": 3301,
      "outcrop": 3302,
      "bleached": 3303,
      "drop": 3304,
      "don": 3305,
      "however": 3306,
      "conn": 3307,
      "involved": 3308,
      "##rat": 3309,
      "stained": 3310,
      "suggesting": 3311,
      "heavy": 3312,
      "label": 3313,
      "im": 3314,
      "##eep": 3315,
      "trampled": 3316,
      "haw": 3317,
      "shed": 3318,
      "winters": 3319,
      "##ying": 3320,
      "##anation": 3321,
      "explanation": 3322,
      "##let": 3323,
      "##oud": 3324,
      "plan": 3325,
      "seeing": 3326,
      "kilometers": 3327,
      "##iff": 3328,
      "##aring": 3329,
      "noticeable": 3330,
      "strewn": 3331,
      "##ach": 3332,
      "following": 3333,
      "little": 3334,
      "fre": 3335,
      "fading": 3336,
      "prob": 3337,
      "##otes": 3338,
      "able": 3339,
      "trailhead": 3340,
      "mot": 3341,
      "pines": 3342,
      "summers": 3343,
      "coyotes": 3344,
      "bottles": 3345,
      "describe": 3346,
      "among": 3347,
      "mentioned": 3348,
      "glowing": 3349,
      "constant": 3350,
      "manure": 3351,
      "eaten": 3352,
      "lay": 3353,
      "dra": 3354,
      "resembling": 3355,
      "assistance": 3356,
      "mesqu": 3357,
      "obst": 3358,
      "country": 3359,
      "mesquite": 3360,
      "tex": 3361,
      "##rying": 3362,
      "run": 3363,
      "swamp": 3364,
      "fu": 3365,
      "sle": 3366,
      "states": 3367,
      "##em": 3368,
      "great": 3369,
      "##oc": 3370,
      "##und": 3371,
      "##ked": 3372,
      "detect": 3373,
      "ass": 3374,
      "texas": 3375,
      "snagged": 3376,
      "coff": 3377,
      "reflect": 3378,
      "giv": 3379,
      "coffee": 3380,
      "##ging": 3381,
      "primarily": 3382,
      "discol": 3383,
      "motor": 3384,
      "pathway": 3385,
      "##oe": 3386,
      "fuel": 3387,
      "straight": 3388,
      "##rang": 3389,
      "prickly": 3390,
      "lon": 3391,
      "shaded": 3392,
      "degre": 3393,
      "heat": 3394,
      "##iated": 3395,
      "strang": 3396,
      "home": 3397,
      "crumbs": 3398,
      "site": 3399,
      "too": 3400,
      "##read": 3401,
      "##ress": 3402,
      "prints": 3403,
      "landmarks": 3404,
      "##set": 3405,
      "##shed": 3406,
      "united": 3407,
      "imag": 3408,
      "##ades": 3409,
      "consist": 3410,
      "anten": 3411,
      "openness": 3412,
      "antenna": 3413,
      "soaring": 3414,
      "rang": 3415,
      "heading": 3416,
      "valle": 3417,
      "##iness": 3418,
      "lad": 3419,
      "blows": 3420,
      "experi": 3421,
      "##mer": 3422,
      "far": 3423,
      "sighting": 3424,
      "##ume": 3425,
      "fly": 3426,
      "degrees": 3427,
      "pos": 3428,
      "abund": 3429,
      "hawk": 3430,
      "splint": 3431,
      "snow": 3432,
      "sources": 3433,
      "stark": 3434,
      "displaced": 3435,
      "strands": 3436,
      "fir": 3437,
      "mead": 3438,
      "##ky": 3439,
      "mentioning": 3440,
      "bet": 3441,
      "##ructed": 3442,
      "cell": 3443,
      "##aceous": 3444,
      "herbaceous": 3445,
      "##ection": 3446,
      "dang": 3447,
      "##ump": 3448,
      "##icop": 3449,
      "community": 3450,
      "rand": 3451,
      "lid": 3452,
      "wand": 3453,
      "cap": 3454,
      "ripped": 3455,
      "faintly": 3456,
      "##vement": 3457,
      "salt": 3458,
      "mix": 3459,
      "random": 3460,
      "barri": 3461,
      "tractor": 3462,
      "##ew": 3463,
      "peaceful": 3464,
      "scrapes": 3465,
      "whips": 3466,
      "words": 3467,
      "hone": 3468,
      "position": 3469,
      "doing": 3470,
      "equ": 3471,
      "western": 3472,
      "hanging": 3473,
      "##ls": 3474,
      "laden": 3475,
      "discolored": 3476,
      "sweat": 3477,
      "helicop": 3478,
      "voices": 3479,
      "require": 3480,
      "ris": 3481,
      "##bit": 3482,
      "##ank": 3483,
      "helicopter": 3484,
      "sit": 3485,
      "aw": 3486,
      "dun": 3487,
      "wrappers": 3488,
[...]
